{
  "version": "1.0",
  "truncation": null,
  "padding": null,
  "added_tokens": [
    {
      "id": 0,
      "content": "[PAD]",
      "single_word": false,
      "lstrip": false,
      "rstrip": false,
      "normalized": false,
      "special": true
    },
    {
      "id": 1,
      "content": "[UNK]",
      "single_word": false,
      "lstrip": false,
      "rstrip": false,
      "normalized": false,
      "special": true
    },
    {
      "id": 2,
      "content": "[BOS]",
      "single_word": false,
      "lstrip": false,
      "rstrip": false,
      "normalized": false,
      "special": true
    },
    {
      "id": 3,
      "content": "[EOS]",
      "single_word": false,
      "lstrip": false,
      "rstrip": false,
      "normalized": false,
      "special": true
    },
    {
      "id": 8000,
      "content": "<user>",
      "single_word": true,
      "lstrip": false,
      "rstrip": false,
      "normalized": false,
      "special": false
    },
    {
      "id": 8001,
      "content": "</user>",
      "single_word": true,
      "lstrip": false,
      "rstrip": false,
      "normalized": false,
      "special": false
    },
    {
      "id": 8002,
      "content": "<assistant>",
      "single_word": true,
      "lstrip": false,
      "rstrip": false,
      "normalized": false,
      "special": false
    },
    {
      "id": 8003,
      "content": "</assistant>",
      "single_word": true,
      "lstrip": false,
      "rstrip": false,
      "normalized": false,
      "special": false
    },
    {
      "id": 8004,
      "content": "<pad>",
      "single_word": true,
      "lstrip": false,
      "rstrip": false,
      "normalized": false,
      "special": false
    }
  ],
  "normalizer": {
    "type": "Sequence",
    "normalizers": [
      {
        "type": "NFC"
      }
    ]
  },
  "pre_tokenizer": {
    "type": "ByteLevel",
    "add_prefix_space": false,
    "trim_offsets": true,
    "use_regex": true
  },
  "post_processor": null,
  "decoder": {
    "type": "ByteLevel",
    "add_prefix_space": true,
    "trim_offsets": true,
    "use_regex": true
  },
  "model": {
    "type": "BPE",
    "dropout": null,
    "unk_token": "[UNK]",
    "continuing_subword_prefix": null,
    "end_of_word_suffix": null,
    "fuse_unk": false,
    "byte_fallback": false,
    "ignore_merges": false,
    "vocab": {
      "[PAD]": 0,
      "[UNK]": 1,
      "[BOS]": 2,
      "[EOS]": 3,
      "!": 4,
      "\"": 5,
      "#": 6,
      "$": 7,
      "%": 8,
      "&": 9,
      "'": 10,
      "(": 11,
      ")": 12,
      "*": 13,
      "+": 14,
      ",": 15,
      "-": 16,
      ".": 17,
      "/": 18,
      "0": 19,
      "1": 20,
      "2": 21,
      "3": 22,
      "4": 23,
      "5": 24,
      "6": 25,
      "7": 26,
      "8": 27,
      "9": 28,
      ":": 29,
      ";": 30,
      "<": 31,
      "=": 32,
      ">": 33,
      "?": 34,
      "@": 35,
      "A": 36,
      "B": 37,
      "C": 38,
      "D": 39,
      "E": 40,
      "F": 41,
      "G": 42,
      "H": 43,
      "I": 44,
      "J": 45,
      "K": 46,
      "L": 47,
      "M": 48,
      "N": 49,
      "O": 50,
      "P": 51,
      "Q": 52,
      "R": 53,
      "S": 54,
      "T": 55,
      "U": 56,
      "V": 57,
      "W": 58,
      "X": 59,
      "Y": 60,
      "Z": 61,
      "[": 62,
      "\\": 63,
      "]": 64,
      "^": 65,
      "_": 66,
      "`": 67,
      "a": 68,
      "b": 69,
      "c": 70,
      "d": 71,
      "e": 72,
      "f": 73,
      "g": 74,
      "h": 75,
      "i": 76,
      "j": 77,
      "k": 78,
      "l": 79,
      "m": 80,
      "n": 81,
      "o": 82,
      "p": 83,
      "q": 84,
      "r": 85,
      "s": 86,
      "t": 87,
      "u": 88,
      "v": 89,
      "w": 90,
      "x": 91,
      "y": 92,
      "z": 93,
      "{": 94,
      "|": 95,
      "}": 96,
      "~": 97,
      "¡": 98,
      "¢": 99,
      "£": 100,
      "¤": 101,
      "¥": 102,
      "¦": 103,
      "§": 104,
      "¨": 105,
      "©": 106,
      "ª": 107,
      "«": 108,
      "¬": 109,
      "®": 110,
      "¯": 111,
      "°": 112,
      "±": 113,
      "²": 114,
      "³": 115,
      "´": 116,
      "µ": 117,
      "¶": 118,
      "·": 119,
      "¸": 120,
      "¹": 121,
      "º": 122,
      "»": 123,
      "¼": 124,
      "½": 125,
      "¾": 126,
      "¿": 127,
      "Â": 128,
      "Ã": 129,
      "Ä": 130,
      "Å": 131,
      "Æ": 132,
      "Ç": 133,
      "È": 134,
      "É": 135,
      "Ê": 136,
      "Ë": 137,
      "Ì": 138,
      "Í": 139,
      "Î": 140,
      "Ï": 141,
      "Ð": 142,
      "Ñ": 143,
      "Ò": 144,
      "Ó": 145,
      "Ô": 146,
      "Õ": 147,
      "Ö": 148,
      "×": 149,
      "Ø": 150,
      "Ù": 151,
      "Ú": 152,
      "Û": 153,
      "Ü": 154,
      "à": 155,
      "á": 156,
      "â": 157,
      "ã": 158,
      "ä": 159,
      "å": 160,
      "æ": 161,
      "ç": 162,
      "è": 163,
      "é": 164,
      "ê": 165,
      "ë": 166,
      "ì": 167,
      "í": 168,
      "î": 169,
      "ï": 170,
      "ð": 171,
      "ó": 172,
      "Ġ": 173,
      "ġ": 174,
      "Ģ": 175,
      "ģ": 176,
      "Ĥ": 177,
      "ĥ": 178,
      "Ħ": 179,
      "ħ": 180,
      "Ĩ": 181,
      "ĩ": 182,
      "Ī": 183,
      "ī": 184,
      "Ĭ": 185,
      "ĭ": 186,
      "Į": 187,
      "į": 188,
      "İ": 189,
      "ı": 190,
      "Ĳ": 191,
      "ĳ": 192,
      "Ĵ": 193,
      "ĵ": 194,
      "Ķ": 195,
      "ķ": 196,
      "ĸ": 197,
      "Ĺ": 198,
      "ĺ": 199,
      "Ļ": 200,
      "ļ": 201,
      "Ľ": 202,
      "ľ": 203,
      "Ŀ": 204,
      "ŀ": 205,
      "Ł": 206,
      "ł": 207,
      "Ń": 208,
      "ä¸": 209,
      "ãĢ": 210,
      "çļ": 211,
      "çļĦ": 212,
      "äº": 213,
      "æľ": 214,
      "ãĢĤ": 215,
      "åħ": 216,
      "åľ": 217,
      "åı": 218,
      "å¤": 219,
      "å¹": 220,
      "ä»": 221,
      "å®": 222,
      "æĸ": 223,
      "å¹´": 224,
      "åĪ": 225,
      "ãĢģ": 226,
      "åĲ": 227,
      "çĶ": 228,
      "åĽ": 229,
      "åį": 230,
      "åŃ": 231,
      "ä½": 232,
      "å°": 233,
      "æĺ": 234,
      "æĹ": 235,
      "ä¹": 236,
      "ä¸Ń": 237,
      "å¾": 238,
      "æĪ": 239,
      "åľ¨": 240,
      "å¸": 241,
      "ä¸Ģ": 242,
      "äºº": 243,
      "éĢ": 244,
      "åĮ": 245,
      "âĢ": 246,
      "å¤§": 247,
      "è¿": 248,
      "åĬ": 249,
      "æĺ¯": 250,
      "æŃ": 251,
      "åĽ½": 252,
      "åĴ": 253,
      "å·": 254,
      "æĶ": 255,
      "åĴĮ": 256,
      "æ°": 257,
      "19": 258,
      "æľī": 259,
      "éĩ": 260,
      "è¡": 261,
      "çī": 262,
      "åľĭ": 263,
      "æķ": 264,
      "èĢ": 265,
      "ä¼": 266,
      "ç»": 267,
      "éģ": 268,
      "åº": 269,
      "æĿ": 270,
      "èĩ": 271,
      "å¼": 272,
      "æī": 273,
      "å±": 274,
      "æ³": 275,
      "è®": 276,
      "éĻ": 277,
      "éĥ": 278,
      "çĤ": 279,
      "åĩ": 280,
      "åĨ": 281,
      "ç§": 282,
      "çĽ": 283,
      "ä»¥": 284,
      "å¯": 285,
      "æ²": 286,
      "è¯": 287,
      "æĹ¥": 288,
      "ç¾": 289,
      "ä¸º": 290,
      "æľĪ": 291,
      "æĪĲ": 292,
      "åľ°": 293,
      "çĤº": 294,
      "äºĨ": 295,
      "åŁ": 296,
      "ä¸į": 297,
      "å½": 298,
      "æĢ": 299,
      "å¥": 300,
      "èĪ": 301,
      "çİ": 302,
      "åī": 303,
      "æĻ": 304,
      "éĽ": 305,
      "æĭ": 306,
      "å®¶": 307,
      "åĵ": 308,
      "20": 309,
      "ä¸»": 310,
      "æµ": 311,
      "çĲ": 312,
      "æł": 313,
      "éĿ": 314,
      "ä¹ĭ": 315,
      "æ°ĳ": 316,
      "çĶŁ": 317,
      "åİ": 318,
      "è¦": 319,
      "åĩº": 320,
      "æĽ": 321,
      "ä¾": 322,
      "ç«": 323,
      "çº": 324,
      "ä¸Ĭ": 325,
      "æ´": 326,
      "åĳ": 327,
      "ä¿": 328,
      "ãĢĭ": 329,
      "ãĢĬ": 330,
      "æĸ¯": 331,
      "æĸĩ": 332,
      "æĶ¿": 333,
      "çķ": 334,
      "åŃ¦": 335,
      "åĢ": 336,
      "ç´": 337,
      "æ³ķ": 338,
      "çŃ": 339,
      "æ¸": 340,
      "Â·": 341,
      "è¨": 342,
      "å»": 343,
      "åħ¶": 344,
      "ä½ľ": 345,
      "ç¨": 346,
      "é«": 347,
      "è¡Į": 348,
      "çĻ": 349,
      "ä¸ĸ": 350,
      "è§": 351,
      "æİ": 352,
      "æ¯": 353,
      "é¦": 354,
      "æ±": 355,
      "ä»ĸ": 356,
      "çĶ¨": 357,
      "ç¬": 358,
      "éĺ": 359,
      "éĥ¨": 360,
      "åĪĨ": 361,
      "èģ": 362,
      "è¥": 363,
      "å§": 364,
      "åĭ": 365,
      "å¿": 366,
      "èµ": 367,
      "åŃ¸": 368,
      "èĥ": 369,
      "åŃĲ": 370,
      "èª": 371,
      "æ¬": 372,
      "èĢĮ": 373,
      "æĬ": 374,
      "âĢľ": 375,
      "âĢĿ": 376,
      "è¥¿": 377,
      "æĸ¹": 378,
      "å¤ļ": 379,
      "æŀ": 380,
      "è¾": 381,
      "çĪ": 382,
      "çµ": 383,
      "ä»£": 384,
      "éĹ": 385,
      "Ġ19": 386,
      "åĪ°": 387,
      "èĩª": 388,
      "ç¬¬": 389,
      "è¢": 390,
      "äºİ": 391,
      "æľ¬": 392,
      "åħ¬": 393,
      "éķ": 394,
      "åĲĮ": 395,
      "ç¾İ": 396,
      "èĭ": 397,
      "åįĹ": 398,
      "éĸ": 399,
      "éŁ": 400,
      "çŃī": 401,
      "éļ": 402,
      "ä¼ļ": 403,
      "æĸ¼": 404,
      "åıĬ": 405,
      "æĮ": 406,
      "çĲĨ": 407,
      "åĮĸ": 408,
      "çī©": 409,
      "å¾·": 410,
      "è¢«": 411,
      "ä¹Ł": 412,
      "æľĢ": 413,
      "åı¯": 414,
      "ç«ĭ": 415,
      "åĲį": 416,
      "ç¤": 417,
      "æ¼": 418,
      "æķĻ": 419,
      "çĶ±": 420,
      "åĲİ": 421,
      "è¦ģ": 422,
      "å¸Ĥ": 423,
      "è´": 424,
      "çī¹": 425,
      "æľĥ": 426,
      "ä¸ª": 427,
      "åĮĹ": 428,
      "åħ±": 429,
      "é¡": 430,
      "é»": 431,
      "ãĢĮ": 432,
      "ãĢį": 433,
      "ç©": 434,
      "æĹ¶": 435,
      "æĻĤ": 436,
      "å®ļ": 437,
      "å¦": 438,
      "åĪ©": 439,
      "åħ¨": 440,
      "é«ĺ": 441,
      "ä¸ĭ": 442,
      "æīĢ": 443,
      "çľ": 444,
      "åīį": 445,
      "ç¶": 446,
      "å¾Į": 447,
      "ç½": 448,
      "ä¸ī": 449,
      "è»": 450,
      "å¤©": 451,
      "æĢ§": 452,
      "åħĭ": 453,
      "æĦ": 454,
      "èĪĩ": 455,
      "çĦ": 456,
      "å¤ĸ": 457,
      "æľŁ": 458,
      "æı": 459,
      "å»º": 460,
      "éĤ": 461,
      "åıĳ": 462,
      "âĢĶ": 463,
      "èĥ½": 464,
      "èĢħ": 465,
      "æĸ°": 466,
      "è¡¨": 467,
      "ä½į": 468,
      "åĽł": 469,
      "ç¥": 470,
      "æ¨": 471,
      "æŃ¤": 472,
      "åĲĪ": 473,
      "äºĭ": 474,
      "å£": 475,
      "ä½¿": 476,
      "æµ·": 477,
      "æ²»": 478,
      "é¢": 479,
      "å·¥": 480,
      "åįģ": 481,
      "åĮº": 482,
      "åº¦": 483,
      "è·": 484,
      "å¾Ĺ": 485,
      "18": 486,
      "éĢļ": 487,
      "çŁ": 488,
      "åĬł": 489,
      "éł": 490,
      "éĩį": 491,
      "è¶": 492,
      "çİĭ": 493,
      "çģ": 494,
      "éĥ½": 495,
      "åĪ¶": 496,
      "ç±": 497,
      "ä»»": 498,
      "äºĮ": 499,
      "èŃ": 500,
      "æĭī": 501,
      "è½": 502,
      "åŁº": 503,
      "åĿ": 504,
      "å°Ķ": 505,
      "çı": 506,
      "å·ŀ": 507,
      "èĩ³": 508,
      "æĥ": 509,
      "çĽ¸": 510,
      "ç³": 511,
      "ä¸İ": 512,
      "å¹³": 513,
      "è³": 514,
      "çĻ¼": 515,
      "ä½Ĩ": 516,
      "å¯¹": 517,
      "åħ¥": 518,
      "å¦Ĥ": 519,
      "åĬĽ": 520,
      "è©": 521,
      "æĺİ": 522,
      "å±±": 523,
      "åħĥ": 524,
      "æ¬¡": 525,
      "ç§ĳ": 526,
      "èī": 527,
      "èĲ": 528,
      "200": 529,
      "åĵ¡": 530,
      "åĢĭ": 531,
      "æĵ": 532,
      "éĩĮ": 533,
      "åĨĽ": 534,
      "ç®": 535,
      "éĿ¢": 536,
      "èĳ": 537,
      "æľĿ": 538,
      "åı²": 539,
      "åİŁ": 540,
      "å¼ı": 541,
      "è¿Ļ": 542,
      "ç¦": 543,
      "åł": 544,
      "è²": 545,
      "è»į": 546,
      "ä¸ŃåĽ½": 547,
      "æ¥": 548,
      "10": 549,
      "å¢": 550,
      "èĭ±": 551,
      "æŁ": 552,
      "ç³»": 553,
      "å°į": 554,
      "æĿ¥": 555,
      "éĻ¢": 556,
      "éģĵ": 557,
      "è£": 558,
      "çł": 559,
      "),": 560,
      "åŁİ": 561,
      "èĤ": 562,
      "éĩı": 563,
      "å°ı": 564,
      "é©": 565,
      "æĹı": 566,
      "çķĮ": 567,
      "è«": 568,
      "åºľ": 569,
      "æº": 570,
      "åı¤": 571,
      "éķ¿": 572,
      "æĪĸ": 573,
      "æŃ£": 574,
      "èı": 575,
      "æģ": 576,
      "æ¼Ķ": 577,
      "éŁ³": 578,
      "åı£": 579,
      "å¸¸": 580,
      "æ¯Ķ": 581,
      "ä¸ľ": 582,
      "å®ī": 583,
      "å¼Ģ": 584,
      "åĭķ": 585,
      "ä¾Ĩ": 586,
      "åĤ": 587,
      "åģ": 588,
      "éĩĳ": 589,
      "åķ": 590,
      "çĦ¶": 591,
      "çĪ¾": 592,
      "å¸Ŀ": 593,
      "å¤ª": 594,
      "er": 595,
      "èĻ": 596,
      "ç»ı": 597,
      "ç¤¾": 598,
      "èµ·": 599,
      "å¸ĥ": 600,
      "æıĲ": 601,
      "ç¨ĭ": 602,
      "å¹¶": 603,
      "æ®": 604,
      "åĽĽ": 605,
      "èĬ": 606,
      "å¥³": 607,
      "æ°´": 608,
      "an": 609,
      "éĢĻ": 610,
      "é£": 611,
      "æł¼": 612,
      "è¯Ń": 613,
      "è·¯": 614,
      "å²": 615,
      "in": 616,
      "åı°": 617,
      "åĬ¨": 618,
      "æĦı": 619,
      "äºĽ": 620,
      "å°¼": 621,
      "é«Ķ": 622,
      "å§ĭ": 623,
      "å½±": 624,
      "çĲĥ": 625,
      "åįĢ": 626,
      "æķ°": 627,
      "åŃĹ": 628,
      "ä¸¦": 629,
      "éĺ¿": 630,
      "å°±": 631,
      "çİ°": 632,
      "æ¸¯": 633,
      "é¦ĸ": 634,
      "00": 635,
      "ç¶ĵ": 636,
      "åĳĺ": 637,
      "ä½ĵ": 638,
      "åĨħ": 639,
      "æ¡": 640,
      "å¿ĥ": 641,
      "å½¢": 642,
      "ç¸": 643,
      "åĲĦ": 644,
      "åĪĹ": 645,
      "äº¤": 646,
      "æŀĹ": 647,
      "è°": 648,
      "è¿ĩ": 649,
      "æĶ¹": 650,
      "ç»Ł": 651,
      "è¼": 652,
      "èĹ": 653,
      "èİ": 654,
      "å±ķ": 655,
      "æĶ¿åºľ": 656,
      "äººæ°ĳ": 657,
      "çį": 658,
      "å·´": 659,
      "æĪ°": 660,
      "æ²³": 661,
      "èĺ": 662,
      "æİ¥": 663,
      "æĪĺ": 664,
      "å£«": 665,
      "on": 666,
      "æ¢": 667,
      "12": 668,
      "ä¸Ńåľĭ": 669,
      "ä¸ļ": 670,
      "å§Ķ": 671,
      "çı¾": 672,
      "å®Ĺ": 673,
      "æĺŁ": 674,
      "è¨Ģ": 675,
      "åĸ": 676,
      "åĶ": 677,
      "æį": 678,
      "åĮħ": 679,
      "æ±Ł": 680,
      "åıĹ": 681,
      "æľº": 682,
      "åĲĳ": 683,
      "çľģ": 684,
      "å¡": 685,
      "åıį": 686,
      "äº§": 687,
      "èªŀ": 688,
      "çµ±": 689,
      "åĳ½": 690,
      "æĹ¥æľ¬": 691,
      "äºŀ": 692,
      "éĸĭ": 693,
      "è¿Ľ": 694,
      "æ»": 695,
      "äºļ": 696,
      "èĳĹ": 697,
      "æ·": 698,
      "ç¾©": 699,
      "éĽ»": 700,
      "ç§°": 701,
      "æĢ»": 702,
      "æ¹": 703,
      "äºĶ": 704,
      "ä¸ĸçķĮ": 705,
      "éģİ": 706,
      "æµģ": 707,
      "æ¸ħ": 708,
      "17": 709,
      "é¦¬": 710,
      "æĮģ": 711,
      "ä¿¡": 712,
      "åĥ": 713,
      "æ´²": 714,
      "ç¨±": 715,
      "åįİ": 716,
      "éķ·": 717,
      "å·²": 718,
      "æĮĩ": 719,
      "éľ": 720,
      "èį": 721,
      "ç¾İåľĭ": 722,
      "ä¿Ŀ": 723,
      "æ©": 724,
      "é¦Ļ": 725,
      "åĦ": 726,
      "11": 727,
      "ç·": 728,
      "è§£": 729,
      "éĹ´": 730,
      "éĵ": 731,
      "å¨": 732,
      "çłĶ": 733,
      "æīĭ": 734,
      "æĶ¿æ²»": 735,
      "ä»¶": 736,
      "çĽ´": 737,
      "ç¬¬ä¸Ģ": 738,
      "æĿ±": 739,
      "çķ¶": 740,
      "èı¯": 741,
      "çĿ": 742,
      "å°Ĩ": 743,
      "è±": 744,
      "èģĶ": 745,
      "çĽ®": 746,
      "èĴ": 747,
      "åħ§": 748,
      "å®ĺ": 749,
      "æ¶": 750,
      "ç§į": 751,
      "æŃ¦": 752,
      "ä¹ī": 753,
      "16": 754,
      "åĻ": 755,
      "é©¬": 756,
      "å°ĳ": 757,
      "ä½¿çĶ¨": 758,
      "æķ¸": 759,
      "å°ĩ": 760,
      "éĸĵ": 761,
      "æĿİ": 762,
      "åĵģ": 763,
      "æ£": 764,
      "æĴ": 765,
      "åı¯ä»¥": 766,
      "ç¯": 767,
      "éħ": 768,
      "æĽ´": 769,
      "æħ": 770,
      "çļĩ": 771,
      "éĿŀ": 772,
      "ç©¶": 773,
      "åķĨ": 774,
      "å¤«": 775,
      "æł¡": 776,
      "åı¸": 777,
      "åħ³": 778,
      "éĽĨ": 779,
      "äº¬": 780,
      "âĢĶâĢĶ": 781,
      "å½ĵ": 782,
      "é¦Ļæ¸¯": 783,
      "15": 784,
      "ç½Ĺ": 785,
      "ç²": 786,
      "éĢł": 787,
      "ç¹": 788,
      "éĢ²": 789,
      "çĶµ": 790,
      "ç©º": 791,
      "çłĶç©¶": 792,
      "åį³": 793,
      "çģ£": 794,
      "ç¾ħ": 795,
      "çīĪ": 796,
      "å®ŀ": 797,
      "ä¹¦": 798,
      ")ãĢĤ": 799,
      "åĽ½å®¶": 800,
      "ä¸»è¦ģ": 801,
      "åŀ": 802,
      "åĳ¨": 803,
      "éĿ©": 804,
      "æĭ¬": 805,
      "ç®¡": 806,
      "äººåı£": 807,
      "èī²": 808,
      "å®ĥ": 809,
      "ç¥ŀ": 810,
      "ç¨®": 811,
      "æĶ¯": 812,
      "å¤®": 813,
      "åĻ¨": 814,
      "ç¸½": 815,
      "æŃĮ": 816,
      "ç¿": 817,
      "æ¿": 818,
      "åľŁ": 819,
      "è¾¾": 820,
      "ç¤º": 821,
      "çĭ": 822,
      "çĹ": 823,
      "æĸĩåĮĸ": 824,
      "çĶ¢": 825,
      "çĸ": 826,
      "æ©Ł": 827,
      "ä¸Ńå¤®": 828,
      "çĥ": 829,
      "éģĭ": 830,
      "ç¼": 831,
      "æĽ¾": 832,
      "æ´»": 833,
      "ä¾ĭ": 834,
      "åıĸ": 835,
      "ç±³": 836,
      "ä¼Ĭ": 837,
      "ä¸Ģä¸ª": 838,
      "éĹľ": 839,
      "è®¾": 840,
      "è®®": 841,
      "ç¾İåĽ½": 842,
      "æ¥Ń": 843,
      "æºĲ": 844,
      "èº": 845,
      "ä¸ĩ": 846,
      "è¿ĳ": 847,
      "åħ±åĴĮ": 848,
      "en": 849,
      "åħī": 850,
      "æ´¾": 851,
      "èģ¯": 852,
      "æĻ®": 853,
      "ä»¥åıĬ": 854,
      "ä¸¤": 855,
      "ä»Ĭ": 856,
      "æĽ¸": 857,
      "ä»İ": 858,
      "è¿Ĳ": 859,
      "åĮħæĭ¬": 860,
      "åıª": 861,
      "å³": 862,
      "æĶ¾": 863,
      "åħĪ": 864,
      "æ³¢": 865,
      "åħļ": 866,
      "åį¡": 867,
      "æĢĿ": 868,
      "èĤ²": 869,
      "or": 870,
      "åĽŀ": 871,
      "çĻ½": 872,
      "çº¦": 873,
      "æł¹": 874,
      "ç¢": 875,
      "çĳ": 876,
      "ç´Ħ": 877,
      "199": 878,
      "èĮ": 879,
      "è®º": 880,
      "æĥħ": 881,
      "åīĩ": 882,
      "ar": 883,
      "åİĨ": 884,
      "éº": 885,
      "al": 886,
      "ç»Ħ": 887,
      "åħµ": 888,
      "èĢĥ": 889,
      "è®¡": 890,
      "åıĪ": 891,
      "éĥ¨åĪĨ": 892,
      "é¢Ĩ": 893,
      "æĩ": 894,
      "éĢĿ": 895,
      "ç´Ģ": 896,
      "åŃĺ": 897,
      "è«ĸ": 898,
      "å¾Ī": 899,
      "åŀĭ": 900,
      "èº«": 901,
      "åħ¶ä»ĸ": 902,
      "å¸Į": 903,
      "é²": 904,
      "æ¬Ĭ": 905,
      "Ġ20": 906,
      "åħ©": 907,
      "èªį": 908,
      "Ġ(": 909,
      "èĭı": 910,
      "çŁ¥": 911,
      "æŃ»": 912,
      "æĿĥ": 913,
      "at": 914,
      "çŁ³": 915,
      "æĹł": 916,
      "éĶ": 917,
      "åĩºçĶŁ": 918,
      "çºª": 919,
      "ä»¬": 920,
      "å±Ģ": 921,
      "es": 922,
      "åĤ³": 923,
      "ä¸Ķ": 924,
      "èŃ°": 925,
      "åħ¶ä¸Ń": 926,
      "14": 927,
      "æŀľ": 928,
      "ç±»": 929,
      "åĵĪ": 930,
      "çµĲ": 931,
      "èĺŃ": 932,
      "åĪĿ": 933,
      "éŃ": 934,
      "å®£": 935,
      "ç»ĵ": 936,
      "å¯¦": 937,
      "æĬĢ": 938,
      "çĻ¾": 939,
      "åħŃ": 940,
      "é¾": 941,
      "ĠãĢĬ": 942,
      "ä¼ł": 943,
      "åŁŁ": 944,
      "éĢĿä¸ĸ": 945,
      "åİ¿": 946,
      "é»¨": 947,
      "è¯´": 948,
      "åıĤ": 949,
      "æ±ī": 950,
      "ic": 951,
      "å¢ŀ": 952,
      "æĽ²": 953,
      "13": 954,
      "çĦ¡": 955,
      "å¼ķ": 956,
      "å±ħ": 957,
      "åİ»": 958,
      "æĪĳ": 959,
      "åĬ¡": 960,
      "èªª": 961,
      "è®¤": 962,
      "è¶Ĭ": 963,
      "åħ°": 964,
      "éĻ¤": 965,
      "æµİ": 966,
      ")ãĢģ": 967,
      "çĶ·": 968,
      "å¨ģ": 969,
      "å¹¿": 970,
      "ä¼¯": 971,
      "éģĶ": 972,
      "çº§": 973,
      "åħ·": 974,
      "èĦ": 975,
      "ä¿Ħ": 976,
      "çİĩ": 977,
      "ç¡": 978,
      "å¤§åŃ¦": 979,
      "å¾ŀ": 980,
      "æĹ©": 981,
      "çĹħ": 982,
      "éłĺ": 983,
      "he": 984,
      "æĥ³": 985,
      "å®Į": 986,
      "æ¨Ĥ": 987,
      "çĬ": 988,
      "èħ": 989,
      "æİ¨": 990,
      "è¿ĺ": 991,
      "..": 992,
      "ç¦ı": 993,
      "è®°": 994,
      "é¡ŀ": 995,
      "åį°": 996,
      "ç»´": 997,
      "ĠS": 998,
      "å¯¼": 999,
      "æľª": 1000,
      "æ¨¡": 1001,
      "æľ¯": 1002,
      "å¾ĭ": 1003,
      "é¤": 1004,
      "åħ«": 1005,
      "æį®": 1006,
      "æ±Ĥ": 1007,
      "åįł": 1008,
      "çĵ": 1009,
      "èĩ´": 1010,
      "ä»¤": 1011,
      "æ¹ĸ": 1012,
      "çĤ¹": 1013,
      "çļĦä¸Ģ": 1014,
      "èĴĻ": 1015,
      "è±¡": 1016,
      "æĶ¶": 1017,
      "åľĭå®¶": 1018,
      "ä»£è¡¨": 1019,
      "åĲī": 1020,
      "âĢĿãĢĤ": 1021,
      "æ¼¢": 1022,
      "ĠC": 1023,
      "is": 1024,
      "åĢĳ": 1025,
      "éĺ³": 1026,
      "åĨį": 1027,
      "it": 1028,
      "æ¡Ī": 1029,
      "ãĢĭ,": 1030,
      "åĬŁ": 1031,
      "åľº": 1032,
      "ä¿®": 1033,
      "âĢĿ,": 1034,
      "å±ŀ": 1035,
      "çĨ": 1036,
      "åı·": 1037,
      "æ²Ļ": 1038,
      "è¨Ī": 1039,
      "èĩº": 1040,
      "éĴ": 1041,
      "è®Ĭ": 1042,
      "åľ°åĮº": 1043,
      "åıĺ": 1044,
      "äº¦": 1045,
      "æĺĵ": 1046,
      "ç¶Ń": 1047,
      "zh": 1048,
      "å¹´åĩºçĶŁ": 1049,
      "å¢ĥ": 1050,
      "çº¿": 1051,
      "åĪĻ": 1052,
      "æ¯į": 1053,
      "å¹´éĢĿä¸ĸ": 1054,
      "æ¯ı": 1055,
      "ĠP": 1056,
      "éĢŁ": 1057,
      "å¸Ń": 1058,
      "è¨Ń": 1059,
      "çª": 1060,
      "åºĶ": 1061,
      "ä¸įåĲĮ": 1062,
      "Ġ198": 1063,
      "å¾Ģ": 1064,
      "éģ¸": 1065,
      "ç¬¬äºĮ": 1066,
      "Ġ-": 1067,
      "198": 1068,
      "åł´": 1069,
      "çµĦ": 1070,
      "äºī": 1071,
      "åħ¸": 1072,
      "ç®Ĺ": 1073,
      "ä¸ŃçļĦ": 1074,
      "è¶ħ": 1075,
      "æļ": 1076,
      "æŃ·": 1077,
      "å®ĭ": 1078,
      "å¯Ĩ": 1079,
      "æ¾": 1080,
      "åŁİå¸Ĥ": 1081,
      "Ġ18": 1082,
      "çĮ": 1083,
      "èĪª": 1084,
      "æł¸": 1085,
      "Ġ199": 1086,
      "ç¾¤": 1087,
      "åĿĩ": 1088,
      "å¥½": 1089,
      "å°İ": 1090,
      "åľĺ": 1091,
      "æ¼Ķåĵ¡": 1092,
      "æĶ»": 1093,
      "Ġåľ¨": 1094,
      "ç´ł": 1095,
      "çħ": 1096,
      "æŁ¥": 1097,
      "åĶĲ": 1098,
      "ä¹Ŀ": 1099,
      "å»ºç«ĭ": 1100,
      "æ´Ľ": 1101,
      "åĽłæŃ¤": 1102,
      "å¿Ĺ": 1103,
      "å¤ı": 1104,
      "Ġ200": 1105,
      "çģ«": 1106,
      "æľį": 1107,
      "åįĬ": 1108,
      "æ§": 1109,
      "éĮ": 1110,
      "åı¦": 1111,
      "å§Ķåĳĺ": 1112,
      "å¿µ": 1113,
      "åħ¨åĽ½": 1114,
      "æķ´": 1115,
      "ä¸ĥ": 1116,
      "éĢī": 1117,
      "å¤Ħ": 1118,
      "æĩī": 1119,
      "å¤±": 1120,
      "ä¹ĭä¸Ģ": 1121,
      "ä¸ĢåĢĭ": 1122,
      "å·±": 1123,
      "çīĩ": 1124,
      "ä½ķ": 1125,
      "éª": 1126,
      "ĠM": 1127,
      "æĪĲä¸º": 1128,
      "æī¹": 1129,
      "åı¯èĥ½": 1130,
      "çĽŁ": 1131,
      "æīį": 1132,
      "ä¸»ä¹ī": 1133,
      "æķĻèĤ²": 1134,
      "ç«Ļ": 1135,
      "ä¸»ç¾©": 1136,
      "è¦ĸ": 1137,
      "äººæ°ĳåħ±åĴĮ": 1138,
      "èĲ¬": 1139,
      "éĻħ": 1140,
      "æ®µ": 1141,
      "æ¦": 1142,
      "çĩ": 1143,
      "çĿĢ": 1144,
      "ĠA": 1145,
      "éĩįè¦ģ": 1146,
      "è³ĩ": 1147,
      "ç»ıæµİ": 1148,
      "éģĭåĭķ": 1149,
      "Ġ|": 1150,
      "åıĥ": 1151,
      "è§Ĵ": 1152,
      "å¼Ģå§ĭ": 1153,
      "åħ¬åı¸": 1154,
      "ãĢĭ(": 1155,
      "æŀĦ": 1156,
      "æ°ĳæĹı": 1157,
      "èĻŁ": 1158,
      "ä»į": 1159,
      "æ¸¸": 1160,
      "å®¹": 1161,
      "åĥı": 1162,
      "åŃ¸å®¶": 1163,
      "åĪ«": 1164,
      "le": 1165,
      "çĪŃ": 1166,
      "éĤ£": 1167,
      "ĠT": 1168,
      "è¶³": 1169,
      "åı°çģ£": 1170,
      "21": 1171,
      "æ°Ķ": 1172,
      "æĳ": 1173,
      "194": 1174,
      "ä¸Ńå¿ĥ": 1175,
      "éĿ©åĳ½": 1176,
      "äº¡": 1177,
      "è§Ħ": 1178,
      "ä¸ĢäºĽ": 1179,
      "åĪ¥": 1180,
      "èĩªå·±": 1181,
      "æĿ¡": 1182,
      "éĿĴ": 1183,
      "åĭĴ": 1184,
      "éĺŁ": 1185,
      "è´¨": 1186,
      "ç¤¾æľĥ": 1187,
      "å¤§çļĦ": 1188,
      "æ¿Ł": 1189,
      "æĪĲç«ĭ": 1190,
      "çŃĸ": 1191,
      "åįļ": 1192,
      "æŃ¥": 1193,
      "è¡ĵ": 1194,
      "éĦ": 1195,
      "æĸĻ": 1196,
      "éĤ¦": 1197,
      "195": 1198,
      "å¹´çļĦ": 1199,
      "of": 1200,
      "ãĢį,": 1201,
      "éĹ®": 1202,
      "æķħ": 1203,
      "èĬ±": 1204,
      "èĹı": 1205,
      "éļĬ": 1206,
      "22": 1207,
      "åİĨåı²": 1208,
      "ä¸ĸç´Ģ": 1209,
      "30": 1210,
      "ä¹Ĳ": 1211,
      "æī¿": 1212,
      "æ½": 1213,
      "æĪĲçĤº": 1214,
      "å¼µ": 1215,
      "ç¤¾ä¼ļ": 1216,
      "èªįçĤº": 1217,
      "èµĦ": 1218,
      "æĽ¼": 1219,
      "é½": 1220,
      "è³ª": 1221,
      "åıĳå±ķ": 1222,
      "è¨ĺ": 1223,
      "çĵ¦": 1224,
      "éĹ¨": 1225,
      "èĺĩ": 1226,
      "çľŁ": 1227,
      "ä»ĸçļĦ": 1228,
      "èĭ±åľĭ": 1229,
      "ä¸Ńåįİ": 1230,
      "å©": 1231,
      "å¤§åŃ¸": 1232,
      "éĸĢ": 1233,
      "å»£": 1234,
      "æĬķ": 1235,
      "èĸ": 1236,
      "ä¸Ńèı¯": 1237,
      "æ°ı": 1238,
      "éĻį": 1239,
      "ä¸ĸçºª": 1240,
      "é¢ĺ": 1241,
      "çīĻ": 1242,
      "éŁĵ": 1243,
      "æīĵ": 1244,
      "åĽ¾": 1245,
      "ä½Ľ": 1246,
      "197": 1247,
      "å´": 1248,
      "åº·": 1249,
      "åľĸ": 1250,
      "æŃĲ": 1251,
      "ç§»": 1252,
      "éļĽ": 1253,
      "å¥¥": 1254,
      "å¡Ķ": 1255,
      "çĶ°": 1256,
      "Ġt": 1257,
      "èĢģ": 1258,
      "éľĢ": 1259,
      "æŃ¢": 1260,
      "æłĩ": 1261,
      "ç½®": 1262,
      "å²Ľ": 1263,
      "è¨±": 1264,
      "ä¾Ľ": 1265,
      "æĵļ": 1266,
      "è®¤ä¸º": 1267,
      "ion": 1268,
      "å¹´ä»£": 1269,
      "ç«ł": 1270,
      "æĤ": 1271,
      "ä¾Ŀ": 1272,
      "ä½İ": 1273,
      "æĬĹ": 1274,
      "æĻ¯": 1275,
      "æĬ¥": 1276,
      "æĸ½": 1277,
      "æīĺ": 1278,
      "çıŃ": 1279,
      "æ·±": 1280,
      "åī¯": 1281,
      "åĮĹäº¬": 1282,
      "æŃ£å¼ı": 1283,
      "åĨ³": 1284,
      "å°Ħ": 1285,
      "ç¥ĸ": 1286,
      "ä¾ĭå¦Ĥ": 1287,
      "å·¥ä½ľ": 1288,
      "æĸ¹éĿ¢": 1289,
      "æ°£": 1290,
      "éĻĲ": 1291,
      "åľ°åįĢ": 1292,
      "è¡ĮæĶ¿": 1293,
      "æĦŁ": 1294,
      "è§Ģ": 1295,
      "ä¸ĬçļĦ": 1296,
      "å¿ħ": 1297,
      "å¸«": 1298,
      "åĢ¼": 1299,
      "ä»½": 1300,
      "éĻ½": 1301,
      "åºı": 1302,
      "æĬĬ": 1303,
      "å¤į": 1304,
      "éĽ·": 1305,
      "éĸĭå§ĭ": 1306,
      "èĪī": 1307,
      "æ¢Ŀ": 1308,
      "åĭĻ": 1309,
      "å³¶": 1310,
      "re": 1311,
      "åĬ©": 1312,
      "è¬": 1313,
      "çº³": 1314,
      "éĵģ": 1315,
      "æ²¡": 1316,
      "éĨ": 1317,
      "ç§¦": 1318,
      "æĹĹ": 1319,
      "Ġ197": 1320,
      "éĺ²": 1321,
      "åĪĴ": 1322,
      "ç¶ĵæ¿Ł": 1323,
      "è¯¥": 1324,
      "è°ĥ": 1325,
      "é»ŀ": 1326,
      "}-": 1327,
      "ä¸¾": 1328,
      "æ²Ĵ": 1329,
      "è¿°": 1330,
      "åįĥ": 1331,
      "æ°ĳä¸»": 1332,
      "æľ¨": 1333,
      "åĽ¢": 1334,
      "ç§ĳåŃ¦": 1335,
      "196": 1336,
      "æ³¨": 1337,
      "åĳĬ": 1338,
      "å¡ŀ": 1339,
      "éĤĦ": 1340,
      "ä½ľåĵģ": 1341,
      "æİĴ": 1342,
      "è½¦": 1343,
      "ä¾¿": 1344,
      "è¿Ľè¡Į": 1345,
      "ç·ļ": 1346,
      "åĨľ": 1347,
      "åĵ¥": 1348,
      "ä¸Ńåħ±": 1349,
      "åĩºçīĪ": 1350,
      "äººçļĦ": 1351,
      "çĿ£": 1352,
      "åįķ": 1353,
      "åĩĨ": 1354,
      "ãĢįãĢĤ": 1355,
      "23": 1356,
      "æİ§": 1357,
      "è§ģ": 1358,
      "æ¬§": 1359,
      "ä½ı": 1360,
      "æ¯Ľ": 1361,
      "è¡¨ç¤º": 1362,
      "çľĭ": 1363,
      "è¦ĭ": 1364,
      "åĿ¦": 1365,
      "Ġof": 1366,
      "25": 1367,
      "ãĢĭãĢģ": 1368,
      "èĲ½": 1369,
      "æĶ¯æĮģ": 1370,
      "ro": 1371,
      "é²ģ": 1372,
      "å¯Į": 1373,
      "å§Ĩ": 1374,
      "å·¥ç¨ĭ": 1375,
      "æĹ¶æľŁ": 1376,
      "æīĢæľī": 1377,
      "åĲ«": 1378,
      "è®¸": 1379,
      "æ¤": 1380,
      "èĬĤ": 1381,
      "è§Ĩ": 1382,
      "èĻķ": 1383,
      "ĠL": 1384,
      "é¡Į": 1385,
      "èĩªçĶ±": 1386,
      "é£Ł": 1387,
      "å¼º": 1388,
      "éĢļè¿ĩ": 1389,
      "ä¸ģ": 1390,
      "è§Ĥ": 1391,
      "è©²": 1392,
      "å°ģ": 1393,
      "å¥ĩ": 1394,
      "çĻ¼å±ķ": 1395,
      "-{": 1396,
      "çķĻ": 1397,
      "åŃĺåľ¨": 1398,
      "åĺ": 1399,
      "åŁĥ": 1400,
      "æ£®": 1401,
      "ç²¾": 1402,
      "éĻ¸": 1403,
      "å¼ł": 1404,
      "é»ĳ": 1405,
      "ol": 1406,
      "æģ©": 1407,
      "å®¢": 1408,
      "åįı": 1409,
      "æ±º": 1410,
      "ĠB": 1411,
      "è¼ĥ": 1412,
      "å½¢æĪĲ": 1413,
      "å¸¦": 1414,
      "åģļ": 1415,
      "ç»ĩ": 1416,
      "å±¬": 1417,
      "åĢĻ": 1418,
      "è¿ª": 1419,
      "çªģ": 1420,
      "å¼·": 1421,
      "å·Ŀ": 1422,
      "ä¸»å¸Ń": 1423,
      "æ´ĭ": 1424,
      "å¯Ł": 1425,
      "äººçī©": 1426,
      "éŁ¿": 1427,
      "çł´": 1428,
      "çĪ¶": 1429,
      "æ³°": 1430,
      "åĪĽ": 1431,
      "ä¹Łæĺ¯": 1432,
      "ä¸¹": 1433,
      "el": 1434,
      "id": 1435,
      "æıĲåĩº": 1436,
      "åĲĽ": 1437,
      "éĻĨ": 1438,
      "åīµ": 1439,
      "éĬ": 1440,
      "æĵĬ": 1441,
      "å®ĹæķĻ": 1442,
      "éĢ£": 1443,
      "äººæ°ĳåħ±åĴĮåĽ½": 1444,
      "æ¶Ī": 1445,
      "åĬĩ": 1446,
      "åķı": 1447,
      "æ²¡æľī": 1448,
      "æ§ĭ": 1449,
      "çķ¥": 1450,
      "ç³»ç»Ł": 1451,
      "æľ«": 1452,
      "åĨĻ": 1453,
      "å¸Ī": 1454,
      "è¾ĥ": 1455,
      "æľĽ": 1456,
      "åĵ²": 1457,
      "åŃ£": 1458,
      "å®¤": 1459,
      "èİ·": 1460,
      "å¤§åĪ©": 1461,
      "å§Ķåĳĺä¼ļ": 1462,
      "ç´į": 1463,
      "ä¸Ĭæµ·": 1464,
      "193": 1465,
      "Ġ196": 1466,
      "ç½ĳ": 1467,
      "æķĪ": 1468,
      "åĵį": 1469,
      "st": 1470,
      "é»Ħ": 1471,
      "ä¸ĵ": 1472,
      "å¾ģ": 1473,
      "åĽ½éĻħ": 1474,
      "çĻ»": 1475,
      "èĴĻåı¤": 1476,
      "è¯į": 1477,
      "å°Ī": 1478,
      "çį²": 1479,
      "äºĭä»¶": 1480,
      "éĢĲ": 1481,
      "æĺ¥": 1482,
      "ãĢĭãĢģãĢĬ": 1483,
      "èµ«": 1484,
      "æ²Ĵæľī": 1485,
      "èĩ£": 1486,
      "æĦĽ": 1487,
      "æŃ·åı²": 1488,
      "çĶŁçī©": 1489,
      "ç¯Ģ": 1490,
      "æĴŃ": 1491,
      "çĳŀ": 1492,
      "èª¿": 1493,
      "æĪĲåĵ¡": 1494,
      "ç°": 1495,
      "è¯Ŀ": 1496,
      "å¥§": 1497,
      "æľĢé«ĺ": 1498,
      "èĪ¬": 1499,
      "è¿ĲåĬ¨": 1500,
      "å®Ī": 1501,
      "ä¸Ńåįİäººæ°ĳåħ±åĴĮåĽ½": 1502,
      "æł·": 1503,
      "èĩºçģ£": 1504,
      "åį°åº¦": 1505,
      "åłĤ": 1506,
      "çħ§": 1507,
      "èĩªçĦ¶": 1508,
      "æľ±": 1509,
      "å±Ĭ": 1510,
      "çĴ": 1511,
      "ĠI": 1512,
      "çĭ¬": 1513,
      "åī§": 1514,
      "24": 1515,
      "é£İ": 1516,
      "å·¦": 1517,
      "ĠW": 1518,
      "ç»Ħç»ĩ": 1519,
      "èģĮ": 1520,
      "å®ģ": 1521,
      "ç´¢": 1522,
      "ä½Ĩæĺ¯": 1523,
      "ç¦»": 1524,
      "éĲ": 1525,
      "è»Ĭ": 1526,
      "and": 1527,
      "æ¯Ĵ": 1528,
      "èģ²": 1529,
      "åħ¬éĩĮ": 1530,
      "æĲ": 1531,
      "çļĦäºº": 1532,
      "ç´ļ": 1533,
      ":âĢľ": 1534,
      "ch": 1535,
      "å¸¶": 1536,
      "éļı": 1537,
      "å¯«": 1538,
      "åıĭ": 1539,
      "æ¤į": 1540,
      "åįĩ": 1541,
      "50": 1542,
      "ãĢĤâĢĿ": 1543,
      "åĮ»": 1544,
      "æĪĺäºī": 1545,
      "åľ°æĸ¹": 1546,
      "å¾®": 1547,
      "000": 1548,
      "ç¼ĸ": 1549,
      "çī©çĲĨ": 1550,
      "åºķ": 1551,
      "åº§": 1552,
      "ĠD": 1553,
      "åĸ®": 1554,
      "ä¼¦": 1555,
      "èĥŀ": 1556,
      "å°±æĺ¯": 1557,
      "et": 1558,
      "çĽĽ": 1559,
      "éĽ¢": 1560,
      "ĠH": 1561,
      "éħį": 1562,
      "æİĪ": 1563,
      "æ¾³": 1564,
      "å½±éŁ¿": 1565,
      "èĹĿ": 1566,
      "27": 1567,
      "ç»Ĩ": 1568,
      "é¢¨": 1569,
      "è¿ŀ": 1570,
      "è¦ı": 1571,
      "ĠG": 1572,
      "ä¼¼": 1573,
      "åħį": 1574,
      "åŃ¦å®¶": 1575,
      "å¹²": 1576,
      "å»·": 1577,
      "ä½ľä¸º": 1578,
      "èĲ¨": 1579,
      "åĪĩ": 1580,
      "Ġ194": 1581,
      "è©±": 1582,
      "çķ«": 1583,
      "æĹħ": 1584,
      "æĢĿæĥ³": 1585,
      "çĶ±æĸ¼": 1586,
      "åĪ¤": 1587,
      "èİ«": 1588,
      "åĩ»": 1589,
      "æĿŁ": 1590,
      "çį¨": 1591,
      "28": 1592,
      "äºĴ": 1593,
      "ç±į": 1594,
      "è£½": 1595,
      "æŃĮæīĭ": 1596,
      "as": 1597,
      "ĠR": 1598,
      "åŃ«": 1599,
      "è¯Ńè¨Ģ": 1600,
      "ç¸½çµ±": 1601,
      "è¦ª": 1602,
      "åĬŀ": 1603,
      "é¾į": 1604,
      "il": 1605,
      "æĭ¿": 1606,
      "ing": 1607,
      "åħ´": 1608,
      "åł±": 1609,
      "è©ŀ": 1610,
      "æĻĤæľŁ": 1611,
      "éĢĢ": 1612,
      "ä»Ģ": 1613,
      "26": 1614,
      "è½¬": 1615,
      "é²ľ": 1616,
      "çĶļ": 1617,
      "ç»Ļ": 1618,
      "å½±åĵį": 1619,
      "çĶ±äºİ": 1620,
      "ä¼ļè®®": 1621,
      "æĬĢæľ¯": 1622,
      "æľĹ": 1623,
      "å»¶": 1624,
      "ow": 1625,
      "æ¨Ļ": 1626,
      "è½ī": 1627,
      "åĪ¶åº¦": 1628,
      "æĨ": 1629,
      "æ°ĳåľĭ": 1630,
      "èĭ±åĽ½": 1631,
      "éŁĵåľĭ": 1632,
      "é¦Ĩ": 1633,
      "ä¸ĢèĪ¬": 1634,
      "çºĮ": 1635,
      "æģ¯": 1636,
      "ç¶²": 1637,
      "ç§¯": 1638,
      "çĪĨ": 1639,
      "èģ·": 1640,
      "çļĩå¸Ŀ": 1641,
      "åĽłçĤº": 1642,
      "é»ĥ": 1643,
      "çįİ": 1644,
      "om": 1645,
      "èĥ¡": 1646,
      "åıĹåĪ°": 1647,
      "æĸ¹æ³ķ": 1648,
      "åħ·æľī": 1649,
      "ç»Ń": 1650,
      "è³½": 1651,
      "èĵ": 1652,
      "æıĲä¾Ľ": 1653,
      "ç¨±çĤº": 1654,
      "æĸ¯åĿ¦": 1655,
      "ed": 1656,
      "å¼Ĺ": 1657,
      "æĶ¿çŃĸ": 1658,
      "ĠE": 1659,
      "ç®¡çĲĨ": 1660,
      "åľĭéļĽ": 1661,
      "ç¬¬ä¸ī": 1662,
      "çĲ´": 1663,
      "ç¹Ķ": 1664,
      "èĪĪ": 1665,
      "å¥¹": 1666,
      "æ³ķåľĭ": 1667,
      "è¨±å¤ļ": 1668,
      "éķĩ": 1669,
      "am": 1670,
      "æĿĳ": 1671,
      "çľ¾": 1672,
      "çİ¯": 1673,
      "æ°¸": 1674,
      "å·®": 1675,
      "éĢłæĪĲ": 1676,
      "æ¥µ": 1677,
      "ä¹ħ": 1678,
      "æ¨£": 1679,
      "è¯ģ": 1680,
      "éĻĦ": 1681,
      "ä»ĸä»¬": 1682,
      "åŁºæľ¬": 1683,
      "å¤´": 1684,
      "åı³": 1685,
      "èĳĹåĲį": 1686,
      "ç£": 1687,
      "éĹ®é¢ĺ": 1688,
      "åįĶ": 1689,
      "æ¸©": 1690,
      "ur": 1691,
      "æ³ķåĽ½": 1692,
      "å¿«": 1693,
      "åĩł": 1694,
      "ç¬¦": 1695,
      "å¤§éĩı": 1696,
      "çĶŁæ´»": 1697,
      "è¿ĻäºĽ": 1698,
      "éļĨ": 1699,
      "èµĽ": 1700,
      "çķ¶æĻĤ": 1701,
      "ac": 1702,
      "è¯º": 1703,
      "éĢ²è¡Į": 1704,
      "æĸ¹å¼ı": 1705,
      "è¦ģæ±Ĥ": 1706,
      "åĸĦ": 1707,
      "ä¼Ĺ": 1708,
      "æĬ¤": 1709,
      "éļ¨": 1710,
      "é¥": 1711,
      "éĢļå¸¸": 1712,
      "é¤¨": 1713,
      "åĬī": 1714,
      "å¾·åľĭ": 1715,
      "us": 1716,
      "æĺ¯ä¸Ģ": 1717,
      "éŁ©": 1718,
      "èģĸ": 1719,
      "é£ŀ": 1720,
      "ç¥¨": 1721,
      "æĳ©": 1722,
      "ä»ĸåĢĳ": 1723,
      "æ³½": 1724,
      "ĠN": 1725,
      "29": 1726,
      "éĥ¡": 1727,
      "å²¸": 1728,
      "åĶ±": 1729,
      "ç¡®": 1730,
      "ç·¨": 1731,
      "ç³»çµ±": 1732,
      "éĮĦ": 1733,
      "çĮ®": 1734,
      "ĠåıĤ": 1735,
      "éģŃ": 1736,
      "è¾¹": 1737,
      "èĮĥ": 1738,
      "æŀģ": 1739,
      "æĶ¹éĿ©": 1740,
      "éĩĩ": 1741,
      "éĨ«": 1742,
      "éĻ³": 1743,
      "ç¦ģ": 1744,
      "èĶ": 1745,
      "ç»§": 1746,
      "å¢ŀåĬł": 1747,
      "æ»¡": 1748,
      "çº¢": 1749,
      "ç§°ä¸º": 1750,
      "å¥ĸ": 1751,
      "éĽħ": 1752,
      "ä½Ļ": 1753,
      "åĲĮæĹ¶": 1754,
      "é¡¿": 1755,
      "æİ§åĪ¶": 1756,
      "çĽ®åīį": 1757,
      "ç»Ī": 1758,
      "è«¾": 1759,
      "æĪ°çĪŃ": 1760,
      "åľĺé«Ķ": 1761,
      "åŃ¦éĻ¢": 1762,
      "å©ļ": 1763,
      "è²Ŀ": 1764,
      "æĭľ": 1765,
      "Ġthe": 1766,
      "çļĦå¤§": 1767,
      "å¾·åĽ½": 1768,
      "çµ¦": 1769,
      "han": 1770,
      "çĥĪ": 1771,
      ":ãĢĮ": 1772,
      "éŁ³æ¨Ĥ": 1773,
      "éĢĻäºĽ": 1774,
      "éĽ»å½±": 1775,
      "æĢ»ç»Ł": 1776,
      "çĪ±": 1777,
      "åħĴ": 1778,
      "é¼": 1779,
      "éģĬ": 1780,
      "å£°": 1781,
      "éľĢè¦ģ": 1782,
      "åį«": 1783,
      "å½¹": 1784,
      "å¾ĹåĪ°": 1785,
      "åģľ": 1786,
      "æ¦Ĥ": 1787,
      "èĭıèģĶ": 1788,
      "é¡¹": 1789,
      "Ġ195": 1790,
      "ĠF": 1791,
      "èªŀè¨Ģ": 1792,
      "ç¹¼": 1793,
      "åł¡": 1794,
      "èŀ": 1795,
      "æĻº": 1796,
      "æĵį": 1797,
      "äº¤éĢļ": 1798,
      "éĲµ": 1799,
      "åħ±äº§": 1800,
      "åĪĺ": 1801,
      "èģĶåĲĪ": 1802,
      "é»İ": 1803,
      "çĦ¶èĢĮ": 1804,
      "æ¢ħ": 1805,
      "ä¿Ĥ": 1806,
      "æĿ¾": 1807,
      "äºĮåįģ": 1808,
      "èīº": 1809,
      "Ġ9": 1810,
      "æĢģ": 1811,
      "åĽŃ": 1812,
      "é¢Ĩå¯¼": 1813,
      "ent": 1814,
      "æ¥ļ": 1815,
      "æ»¿": 1816,
      "å¼Ł": 1817,
      "èī¾": 1818,
      "ä½ľçĶ¨": 1819,
      "é¾Ļ": 1820,
      "ä¸įæĺ¯": 1821,
      "ç¢º": 1822,
      "çĽĬ": 1823,
      "è½½": 1824,
      "èĪ¹": 1825,
      "è¯Ĩ": 1826,
      "å°ļ": 1827,
      "äº²": 1828,
      "åĢ«": 1829,
      "èĴĤ": 1830,
      "èĸ©": 1831,
      "æĻļ": 1832,
      "èį·": 1833,
      "é§": 1834,
      "æīĢä»¥": 1835,
      "çµĤ": 1836,
      "èĭ¥": 1837,
      "æľĿé²ľ": 1838,
      "ä¹ĭåĲİ": 1839,
      "åģĩ": 1840,
      "æĪĲåĬŁ": 1841,
      "éģĹ": 1842,
      "åºŃ": 1843,
      "æŁĲ": 1844,
      "éªĮ": 1845,
      "æ°§": 1846,
      "æķ£": 1847,
      "å½¢å¼ı": 1848,
      "ä¾µ": 1849,
      "åĲĮæĻĤ": 1850,
      "å½ĵæĹ¶": 1851,
      "ä»ħ": 1852,
      "ä¸Ńèı¯æ°ĳåľĭ": 1853,
      "åºĨ": 1854,
      "å§Ķåĵ¡": 1855,
      "çļĦæĺ¯": 1856,
      "èŃ¯": 1857,
      "å¸Ŀåľĭ": 1858,
      "éĥ½æĺ¯": 1859,
      "ä¾¯": 1860,
      "èı²": 1861,
      "å¤ĩ": 1862,
      "æ¸¬": 1863,
      "æ±Ĺ": 1864,
      "è¡Ľ": 1865,
      "é®": 1866,
      "å¥ı": 1867,
      "è¡Ĺ": 1868,
      "ç«¯": 1869,
      "ãĢĭãĢĤ": 1870,
      "æ®º": 1871,
      "å®³": 1872,
      "éĹľä¿Ĥ": 1873,
      "è¯Ħ": 1874,
      "éŃ¯": 1875,
      "éģĭåĭķåĵ¡": 1876,
      "åĽº": 1877,
      "äº¿": 1878,
      "%,": 1879,
      "æħĭ": 1880,
      "æ²¹": 1881,
      "åļ": 1882,
      "ä¹ĭå¾Į": 1883,
      "ä¼ģ": 1884,
      "åĺī": 1885,
      "åĩºçİ°": 1886,
      "èĲ¥": 1887,
      "æĿĢ": 1888,
      "è¿Ļä¸ª": 1889,
      "ä»ĭ": 1890,
      "å½ķ": 1891,
      "ç½²": 1892,
      "äºĳ": 1893,
      "æĮī": 1894,
      "ä¹Łæľī": 1895,
      "åķıé¡Į": 1896,
      "æĿĲ": 1897,
      "ç¸£": 1898,
      "åĦĴ": 1899,
      "æĿľ": 1900,
      "è¾²": 1901,
      "åĬ¿": 1902,
      "åĩºçı¾": 1903,
      "å®£å¸ĥ": 1904,
      "åĲ¦": 1905,
      "ä½įäºİ": 1906,
      "éłĵ": 1907,
      "å·¥ä¸ļ": 1908,
      "è´Ŀ": 1909,
      "è©©": 1910,
      "ä¸Ńåħ±ä¸Ńå¤®": 1911,
      "ä½ľå®¶": 1912,
      "åħ³ç³»": 1913,
      "æĽ¹": 1914,
      "åľ°çĲĥ": 1915,
      "åĤĻ": 1916,
      "ind": 1917,
      "Ġ1": 1918,
      "60": 1919,
      "åª": 1920,
      "æ´¥": 1921,
      "éłŃ": 1922,
      "è¯ķ": 1923,
      "åĭ¢": 1924,
      "æł¹æį®": 1925,
      "åľ£": 1926,
      "éĻµ": 1927,
      "çŃĳ": 1928,
      "åľ°ä½į": 1929,
      "çµĦç¹Ķ": 1930,
      "ç¿°": 1931,
      "æķĹ": 1932,
      "iv": 1933,
      "æ²¿": 1934,
      "ä»»ä½ķ": 1935,
      "un": 1936,
      "éĢģ": 1937,
      "èŃī": 1938,
      "åĽ´": 1939,
      "è¿Ļä¸Ģ": 1940,
      "å¾©": 1941,
      "æĸ¯çī¹": 1942,
      "è©ķ": 1943,
      "æ³ķå¾ĭ": 1944,
      "è®¸å¤ļ": 1945,
      "éŃı": 1946,
      "åıĳçĶŁ": 1947,
      "çīĽ": 1948,
      "æºĸ": 1949,
      "è£ħ": 1950,
      "åıªæľī": 1951,
      "æŃĲæ´²": 1952,
      "éĩİ": 1953,
      "æŃ¤å¤ĸ": 1954,
      "èįī": 1955,
      "è¯Ĺ": 1956,
      "èµ°": 1957,
      "éħ¸": 1958,
      "ä½Ķ": 1959,
      "èī¯": 1960,
      "å¾Ĵ": 1961,
      "æĢ§çļĦ": 1962,
      "ç¿»": 1963,
      "é¬": 1964,
      "ä¹ł": 1965,
      "å¤§å¤ļ": 1966,
      "åĬĥ": 1967,
      "åĨĽäºĭ": 1968,
      "èİ·å¾Ĺ": 1969,
      "å±Ĥ": 1970,
      "ä¹Į": 1971,
      "åĽłä¸º": 1972,
      "ç¾ħæĸ¯": 1973,
      "Ġ3": 1974,
      "çĴ°": 1975,
      "çŁŃ": 1976,
      "ç§ĭ": 1977,
      "æķ¦": 1978,
      "å±¤": 1979,
      "ç§Ģ": 1980,
      "çĶļèĩ³": 1981,
      "æŁı": 1982,
      "å¹¾": 1983,
      "éĽĻ": 1984,
      "ãĢĤ(": 1985,
      "æ³Ľ": 1986,
      "å®ª": 1987,
      "èĽ": 1988,
      "%ãĢĤ": 1989,
      "è¾¦": 1990,
      "åĪ°äºĨ": 1991,
      "éģł": 1992,
      "èĩªæ²»": 1993,
      "æ¿Ģ": 1994,
      "ers": 1995,
      "ä¸įèĥ½": 1996,
      "è¿ľ": 1997,
      "ç»Ĩèĥŀ": 1998,
      "èŃĺ": 1999,
      "è¶³çĲĥ": 2000,
      "é®®": 2001,
      "æ´ª": 2002,
      "æ¤įçī©": 2003,
      "ä¸ĢçĽ´": 2004,
      "æĺ¾": 2005,
      "éİ": 2006,
      "æĴ¤": 2007,
      "éĺ¶": 2008,
      "å°įæĸ¼": 2009,
      "åħ¨çĲĥ": 2010,
      "åı¬": 2011,
      "ä½ľçĤº": 2012,
      "éłħ": 2013,
      "()": 2014,
      "éĤĬ": 2015,
      "çĽ´æİ¥": 2016,
      "çĻ¼çĶŁ": 2017,
      "åĲ´": 2018,
      "å·²ç»ı": 2019,
      "Ġå¤ĸ": 2020,
      "å®ĩ": 2021,
      "....": 2022,
      "é¹": 2023,
      "éĽĸ": 2024,
      "è´¹": 2025,
      "å®ļçļĦ": 2026,
      "åľį": 2027,
      "åĪĹè¡¨": 2028,
      "èĪŀ": 2029,
      "çĹħæ¯Ĵ": 2030,
      "Ġand": 2031,
      "ãĢĤãĢį": 2032,
      "åľĴ": 2033,
      "ç¯ĩ": 2034,
      "æĦıå¤§åĪ©": 2035,
      "190": 2036,
      "åļ´": 2037,
      "æĺ¯åľ¨": 2038,
      "ç½Ĺæĸ¯": 2039,
      "ä¹İ": 2040,
      "åĦ¿": 2041,
      "æĹ¶éĹ´": 2042,
      "ä½¿å¾Ĺ": 2043,
      "å®ĮæĪĲ": 2044,
      "æĪ²": 2045,
      "èĨ": 2046,
      "æŃ»äº¡": 2047,
      "çĬ¶": 2048,
      "éĽĦ": 2049,
      "éĿŀå¸¸": 2050,
      "æİ¥åıĹ": 2051,
      "äºĪ": 2052,
      "åħ¼": 2053,
      "å¾Īå¤ļ": 2054,
      "è¾ĸ": 2055,
      "40": 2056,
      "å¯º": 2057,
      "ç§ģ": 2058,
      "å°¤": 2059,
      "é¡¯": 2060,
      "åĶ¯": 2061,
      "ç®Ģ": 2062,
      "åľĭæ°ĳ": 2063,
      "æµĭ": 2064,
      "è¥¿æĸ¹": 2065,
      "ation": 2066,
      "çļ®": 2067,
      "çĶ²": 2068,
      "åħ±äº§åħļ": 2069,
      "th": 2070,
      "è¥¿çıŃ": 2071,
      "è¿«": 2072,
      "åıĳçİ°": 2073,
      "è¥¿çıŃçīĻ": 2074,
      "å¤©æĸĩ": 2075,
      "ç¾ħé¦¬": 2076,
      "èĢ³": 2077,
      "è®ĵ": 2078,
      "å¦Ĥæŀľ": 2079,
      "ows": 2080,
      "Ġ193": 2081,
      "èŀį": 2082,
      "ç½ª": 2083,
      "çļĨ": 2084,
      "ä¹ĭéĹ´": 2085,
      "çİī": 2086,
      "çĻ¼çı¾": 2087,
      "æĸŃ": 2088,
      "ä»ģ": 2089,
      "æ¬§æ´²": 2090,
      "åĪĨåŃĲ": 2091,
      "å§ĵ": 2092,
      "æĺĮ": 2093,
      "é½Ĳ": 2094,
      "op": 2095,
      "å²ģ": 2096,
      "ä»·": 2097,
      "æĸĩåŃĹ": 2098,
      "åħ¬åħĥ": 2099,
      "å¸ĿåĽ½": 2100,
      "åĳ¼": 2101,
      "ç©į": 2102,
      "è¿½": 2103,
      "è·Ŀ": 2104,
      "èİ±": 2105,
      "äºĨä¸Ģ": 2106,
      "åį·": 2107,
      "éĽ»è¦ĸ": 2108,
      "åĥ¹": 2109,
      "ä¸¥": 2110,
      "æ²Ī": 2111,
      "ç´ħ": 2112,
      "ĠO": 2113,
      "è´¥": 2114,
      "æĪ¿": 2115,
      "åħĥç´ł": 2116,
      "æı´": 2117,
      "é¦ĸæ¬¡": 2118,
      "ä¸ĩäºº": 2119,
      "çİ°ä»£": 2120,
      "ae": 2121,
      "æľŁéĹ´": 2122,
      "æıı": 2123,
      "èģ¯åĲĪ": 2124,
      "indows": 2125,
      "ĠJ": 2126,
      "ä¹ĭéĸĵ": 2127,
      "å®Įåħ¨": 2128,
      "çį²å¾Ĺ": 2129,
      "æŁĵ": 2130,
      "éĻ¤äºĨ": 2131,
      "éĵģè·¯": 2132,
      "çĲĨè®º": 2133,
      "çĭ¬ç«ĭ": 2134,
      "è®¡ç®Ĺ": 2135,
      "è£¡": 2136,
      "éĻĪ": 2137,
      "åĲĪä½ľ": 2138,
      "èĢ¶": 2139,
      "æ®ĸ": 2140,
      "ç©Ĩ": 2141,
      "è«¸": 2142,
      "åı¦å¤ĸ": 2143,
      "æİ¢": 2144,
      "å¤ĸäº¤": 2145,
      "æľĢæĹ©": 2146,
      "åŃĶ": 2147,
      "ç§ĳåŃ¸": 2148,
      "è°·": 2149,
      "æĻĤéĸĵ": 2150,
      "éĩĬ": 2151,
      "äº§çĶŁ": 2152,
      "åĥħ": 2153,
      "è¶ĬåįĹ": 2154,
      "åıĮ": 2155,
      "èĩªå·±çļĦ": 2156,
      "ç¼º": 2157,
      "åĪ»": 2158,
      "èĺĩèģ¯": 2159,
      "åŁºçĿ£": 2160,
      "æŀ¶": 2161,
      "çĲĨè«ĸ": 2162,
      "èĥ½å¤": 2163,
      "åĬłåħ¥": 2164,
      "æŀĲ": 2165,
      "ä¿Ĺ": 2166,
      "çµķ": 2167,
      "çĸĨ": 2168,
      "æº«": 2169,
      "éĢĻåĢĭ": 2170,
      "è¡Ģ": 2171,
      "è£Ķ": 2172,
      "äººé¡ŀ": 2173,
      "æĹ©æľŁ": 2174,
      "ä¸»æķĻ": 2175,
      "æľĢå¾Į": 2176,
      "å®ĺæĸ¹": 2177,
      "åºĵ": 2178,
      "çĥŃ": 2179,
      "80": 2180,
      "Ġp": 2181,
      "Ġä¸ŃåĽ½": 2182,
      "è´£": 2183,
      "åĸľ": 2184,
      "ç¦®": 2185,
      "æ´»åĬ¨": 2186,
      "èĬ¬": 2187,
      "æ¡¥": 2188,
      "è²»": 2189,
      "è¯ĳ": 2190,
      "æİ¡": 2191,
      "æĭ¥": 2192,
      "éĩĭ": 2193,
      "å¤ªéĻ½": 2194,
      "åªĴ": 2195,
      "åĨµ": 2196,
      "èŃ·": 2197,
      "èŃ¦": 2198,
      "å®®": 2199,
      "70": 2200,
      "çĭĢ": 2201,
      "ä½³": 2202,
      "ç¬¬åįģ": 2203,
      "æĪı": 2204,
      "éģº": 2205,
      "æļ´": 2206,
      "è¯¸": 2207,
      "åŃ¦æł¡": 2208,
      "å·¨": 2209,
      "çĨĻ": 2210,
      "ig": 2211,
      "å»ºçŃĳ": 2212,
      "åĦª": 2213,
      "åı¶": 2214,
      "åħ±çĶ¢": 2215,
      "æĸ°çļĦ": 2216,
      "çĬ¯": 2217,
      "éĢı": 2218,
      "åĨł": 2219,
      "èĳĹä½ľ": 2220,
      "æĻĤä»£": 2221,
      "å´ĩ": 2222,
      "æ¢ģ": 2223,
      "æģĲ": 2224,
      "è¯»": 2225,
      "çİĭæľĿ": 2226,
      "å¹³åĿĩ": 2227,
      "ä¹¡": 2228,
      "éļİ": 2229,
      "åŃĻ": 2230,
      "åĲ¸": 2231,
      "æŃ²": 2232,
      "çīĪæľ¬": 2233,
      "å¥³åŃĲ": 2234,
      "ä½ĽæķĻ": 2235,
      "è£Ŀ": 2236,
      "èķ": 2237,
      "çķ°": 2238,
      "éļ¾": 2239,
      "de": 2240,
      "ä¸¦ä¸Ķ": 2241,
      "100": 2242,
      "å¥³æĢ§": 2243,
      "è»Ł": 2244,
      "ç¬¬ä¸Ģæ¬¡": 2245,
      "è´µ": 2246,
      "ä¸įåĲĮçļĦ": 2247,
      "ç»Ŀ": 2248,
      "å¾Įä¾Ĩ": 2249,
      "éħĴ": 2250,
      "æĸ·": 2251,
      "ç§ĺ": 2252,
      "è¿ģ": 2253,
      "åĲĮæĢ§": 2254,
      "åįĹéĥ¨": 2255,
      "ist": 2256,
      "ä¹ĭåīį": 2257,
      "åĮĹéĥ¨": 2258,
      "åĮħåĲ«": 2259,
      "ct": 2260,
      "âĢĵ": 2261,
      "çĪµ": 2262,
      "éĻ¶": 2263,
      "ç´°": 2264,
      "åĪ©çĶ¨": 2265,
      "æľĿé®®": 2266,
      ",ãĢĬ": 2267,
      "æĪ·": 2268,
      "Ġf": 2269,
      "189": 2270,
      "éŁ³ä¹Ĳ": 2271,
      "ä¹¦è®°": 2272,
      "éĢļéģİ": 2273,
      "ä¸´": 2274,
      "åĿ¡": 2275,
      "åİŁåŃĲ": 2276,
      "æĸĩçĮ®": 2277,
      "åı¦ä¸Ģ": 2278,
      "å¥´": 2279,
      "éģį": 2280,
      "å§Ķåĵ¡æľĥ": 2281,
      "çĶŁäº§": 2282,
      "çį¨ç«ĭ": 2283,
      "Ġ17": 2284,
      "åĮĪ": 2285,
      "èģļ": 2286,
      "æľīä¸Ģ": 2287,
      "åħ±åĲĮ": 2288,
      "å¸ķ": 2289,
      "ç»ĵæŀĦ": 2290,
      "çĶ·åŃĲ": 2291,
      "ir": 2292,
      "éĽ£": 2293,
      "æĬµ": 2294,
      "çĨ±": 2295,
      "å½Ĵ": 2296,
      "ä¿Ħç¾ħæĸ¯": 2297,
      "ç°¡": 2298,
      "åĪĳ": 2299,
      "ut": 2300,
      "èĪªç©º": 2301,
      "è¼ī": 2302,
      "æł¹æĵļ": 2303,
      "æ´»åĭķ": 2304,
      "çĩŁ": 2305,
      "og": 2306,
      "éº¦": 2307,
      "è®¡åĪĴ": 2308,
      "çı¾ä»£": 2309,
      "æī§": 2310,
      "å»ºè®¾": 2311,
      "):": 2312,
      "78": 2313,
      "çĶ¢çĶŁ": 2314,
      "åħħ": 2315,
      "çĶ»": 2316,
      "éĵ¶": 2317,
      "è®Ģ": 2318,
      "ç¹ģ": 2319,
      "è½¯": 2320,
      "è¿Ļç§į": 2321,
      "éį": 2322,
      "éĩįè¦ģçļĦ": 2323,
      "æĹ¶ä»£": 2324,
      "æ¸ħæľĿ": 2325,
      "å¥³æ¼Ķåĵ¡": 2326,
      "æİĮ": 2327,
      "å«": 2328,
      "Ġ2": 2329,
      "éľĩ": 2330,
      "æĪĲçļĦ": 2331,
      "è§£æĶ¾": 2332,
      "é¸": 2333,
      "éĺ¿æĭī": 2334,
      "éĵ¾": 2335,
      "å¥ī": 2336,
      "ag": 2337,
      "ä¸Ńæĸĩ": 2338,
      "è´Ł": 2339,
      "Ġ4": 2340,
      ",âĢľ": 2341,
      "Ġå¤§": 2342,
      "ç³»åĪĹ": 2343,
      "ä¿Ħç½Ĺæĸ¯": 2344,
      "å¾Ĳ": 2345,
      "æĽĨ": 2346,
      "Ġå¤ĸéĥ¨": 2347,
      "âĢĿãĢģ": 2348,
      "åĲĮå¹´": 2349,
      "è»įäºĭ": 2350,
      "é©Ĺ": 2351,
      "åį»": 2352,
      "ç¯Ħ": 2353,
      "å³°": 2354,
      "æ¼¸": 2355,
      "æ··": 2356,
      "åĬª": 2357,
      "éĩįæĸ°": 2358,
      "æ³ķéĻ¢": 2359,
      "åįļçī©": 2360,
      "æ¹¾": 2361,
      "æľĢå¤§çļĦ": 2362,
      "å¹³æĸ¹": 2363,
      "åĬŁèĥ½": 2364,
      "æ¦Ĥå¿µ": 2365,
      "æ¹ĸåįĹ": 2366,
      "è²¬": 2367,
      "èĥľ": 2368,
      "å¿ł": 2369,
      "èĢĮä¸Ķ": 2370,
      "é£Ľ": 2371,
      "ä»°": 2372,
      "éĿ¢ç§¯": 2373,
      "Ġc": 2374,
      "åĪĬ": 2375,
      "åĽ½åĬ¡": 2376,
      "æľºæŀĦ": 2377,
      "åħ³äºİ": 2378,
      "å¤§éĻĨ": 2379,
      "ç¾İåħĥ": 2380,
      "æķ°æį®": 2381,
      "ç«¥": 2382,
      "Ġin": 2383,
      "èĥĮ": 2384,
      "ç½Ĺé©¬": 2385,
      "ä½Ī": 2386,
      "é©»": 2387,
      "åĨ³å®ļ": 2388,
      "å°Ĭ": 2389,
      "31": 2390,
      "æĵģ": 2391,
      "çĽ´åĪ°": 2392,
      "idae": 2393,
      "åŃĹæ¯į": 2394,
      "å·²ç¶ĵ": 2395,
      "ä¹ĺ": 2396,
      "æĭīåħĭ": 2397,
      "å®īåħ¨": 2398,
      "åľ°çĲĨ": 2399,
      "è©¦": 2400,
      "ç¬¬äºĮæ¬¡": 2401,
      "æ¯Ľæ³½": 2402,
      "Ġs": 2403,
      "è¡ĮçļĦ": 2404,
      "ç¤¼": 2405,
      "ç¿Ĵ": 2406,
      "éĽĸçĦ¶": 2407,
      "Ġ5": 2408,
      "å¾½": 2409,
      "å¤§ä¼ļ": 2410,
      "å®«": 2411,
      "èĻ½": 2412,
      "æ¯Ľæ³½ä¸ľ": 2413,
      "å¢¨": 2414,
      "éŁ©åĽ½": 2415,
      "èĲĬ": 2416,
      "ä¸¤ä¸ª": 2417,
      "åĭĿ": 2418,
      "æ¹ĺ": 2419,
      "åıĸå¾Ĺ": 2420,
      "è¿ĺæľī": 2421,
      "æ¬¾": 2422,
      "åĩºçīĪç¤¾": 2423,
      "åŁ·": 2424,
      "çĶµå½±": 2425,
      "ia": 2426,
      "ãĢį(": 2427,
      "çĥı": 2428,
      "è®©": 2429,
      "åĨ·": 2430,
      "ĠåıĤèĢĥ": 2431,
      "åı¥": 2432,
      "æĨ²": 2433,
      "åįģäºĮ": 2434,
      "åģ¶": 2435,
      "ç¨ĭåºı": 2436,
      "æĭ¥æľī": 2437,
      "å¤§éĥ¨åĪĨ": 2438,
      "2000": 2439,
      "Ġ10": 2440,
      "åĲ³": 2441,
      "åį±": 2442,
      "è¿Ľåħ¥": 2443,
      "æĸĹ": 2444,
      "æµĻ": 2445,
      "èľ": 2446,
      "æ»ħ": 2447,
      "Ġ7": 2448,
      "åĲİæĿ¥": 2449,
      "æľĥèŃ°": 2450,
      "ä½įæĸ¼": 2451,
      "os": 2452,
      "åĪĨæŀĲ": 2453,
      "åı¤ä»£": 2454,
      "åº«": 2455,
      "å¯§": 2456,
      "åįĹäº¬": 2457,
      "å¨ľ": 2458,
      "åĴĮå¹³": 2459,
      "çīĮ": 2460,
      "å¢ŀéķ¿": 2461,
      "ä¿ĿæĬ¤": 2462,
      "æ³ģ": 2463,
      "ä¼Ĳ": 2464,
      "åĿĢ": 2465,
      "ĠK": 2466,
      "è¿Ķ": 2467,
      "éģĩ": 2468,
      "ä¸ĭçļĦ": 2469,
      "æĶ¿æ²»äººçī©": 2470,
      "çį»": 2471,
      "æ¼«": 2472,
      "è²ł": 2473,
      "è¯·": 2474,
      "æĭħ": 2475,
      "çŃ¾": 2476,
      "æ¸Ĳ": 2477,
      "éĬĢ": 2478,
      "éķ¿æ²Ļ": 2479,
      "éºĹ": 2480,
      "Ġ6": 2481,
      "ãĢįãĢģ": 2482,
      "æī©": 2483,
      "çĶµè§Ĩ": 2484,
      "um": 2485,
      "å¤§éĻ¸": 2486,
      "å»ī": 2487,
      "æ¥Ĭ": 2488,
      "èĮ¨": 2489,
      "çļĦä¸»è¦ģ": 2490,
      "èĤ¯": 2491,
      "å¾ħ": 2492,
      "èµ¤": 2493,
      "æĸ¹è¨Ģ": 2494,
      "çĬ¹": 2495,
      "ĠU": 2496,
      "éĭ": 2497,
      "âĢĿ(": 2498,
      "çĶ¨äºİ": 2499,
      "éº¥": 2500,
      "éłĪ": 2501,
      "çĶĺ": 2502,
      "å£ĵ": 2503,
      "èį£": 2504,
      "åį¢": 2505,
      "åĨ¬": 2506,
      "ç§ĳæĬĢ": 2507,
      "é¤ĺ": 2508,
      "ä»įçĦ¶": 2509,
      "ul": 2510,
      "æĥł": 2511,
      "æĪĸèĢħ": 2512,
      "è®¾è®¡": 2513,
      "å½¼": 2514,
      "åİŁåĽł": 2515,
      "åŁºç¡": 2516,
      "çĤºäºĨ": 2517,
      "è¢ģ": 2518,
      "å¯¹äºİ": 2519,
      "å¤ļçļĦ": 2520,
      "è£ģ": 2521,
      "åŁºç¡Ģ": 2522,
      "æª": 2523,
      "çī¹åĪ¥": 2524,
      "ä¼łç»Ł": 2525,
      "éĤĵ": 2526,
      "Ġåıĥ": 2527,
      "çĶ³": 2528,
      "èħĬ": 2529,
      "æĺ¯çĶ±": 2530,
      "çº½": 2531,
      "æĸĩåŃ¸": 2532,
      "å½Ī": 2533,
      "Ġ,": 2534,
      "è¤": 2535,
      "éĽ²": 2536,
      "35": 2537,
      "éģ¿": 2538,
      "âĢĿãĢģâĢľ": 2539,
      "90": 2540,
      "éĢĥ": 2541,
      "æĻĭ": 2542,
      "çĸĳ": 2543,
      "éĶ¡": 2544,
      "åĪº": 2545,
      "åħģ": 2546,
      "è¿ħ": 2547,
      ";}-": 2548,
      "ra": 2549,
      "éĢĶ": 2550,
      "åİĭ": 2551,
      "å¦»": 2552,
      "ä¼ĳ": 2553,
      "äºĤ": 2554,
      "èĳ¡": 2555,
      "hans": 2556,
      "å°¼äºŀ": 2557,
      "å¼Ģåıĳ": 2558,
      "äººæ°ĳåħ±åĴĮåľĭ": 2559,
      "48": 2560,
      "æ²ĥ": 2561,
      "æ¥¼": 2562,
      "éĽ»åŃĲ": 2563,
      "äº®": 2564,
      "éĽ¨": 2565,
      "å¯¼èĩ´": 2566,
      "åĤ³çµ±": 2567,
      "NA": 2568,
      "ä»¥ä¸Ĭ": 2569,
      "çģµ": 2570,
      "åĶ¯ä¸Ģ": 2571,
      "ä¹¾": 2572,
      "ĠThe": 2573,
      "ter": 2574,
      "ç»ĵæĿŁ": 2575,
      "èĽĭ": 2576,
      "é¡º": 2577,
      "çĸ«": 2578,
      "Ġ=": 2579,
      "æ½®": 2580,
      "Ġzh": 2581,
      "Ġb": 2582,
      "åŁ¹": 2583,
      "æĿĤ": 2584,
      "tw": 2585,
      "çµ±æ²»": 2586,
      "åĽ½æ°ĳ": 2587,
      "æĿ¨": 2588,
      "é¦ĸéĥ½": 2589,
      "åĲĦåľ°": 2590,
      "æĽ¿": 2591,
      "å¤ľ": 2592,
      "åľŁåľ°": 2593,
      "åħ¨åľĭ": 2594,
      "æłĩåĩĨ": 2595,
      "æĮĩåĩº": 2596,
      "åĨĽéĺŁ": 2597,
      "é³": 2598,
      "å®ªæ³ķ": 2599,
      "ri": 2600,
      "æĵĶ": 2601,
      "æ±ºå®ļ": 2602,
      "æ¾¤": 2603,
      "æģ¢": 2604,
      "åŃĿ": 2605,
      "åĨľä¸ļ": 2606,
      "èħ¦": 2607,
      "Ġ8": 2608,
      "æĪ´": 2609,
      "æĸĩåŃ¦": 2610,
      "éłĲ": 2611,
      "ç¯ī": 2612,
      "æ¶ī": 2613,
      "å¹´èĩ³": 2614,
      "åħ¬è·¯": 2615,
      "è¾½": 2616,
      "æĿ¿": 2617,
      "ä»ĸåľ¨": 2618,
      "åĬ³": 2619,
      "é¢Ħ": 2620,
      "å½Ń": 2621,
      "å·´é»İ": 2622,
      "æ¸¡": 2623,
      "ãĢī": 2624,
      "çļĦçłĶç©¶": 2625,
      "ãĢĪ": 2626,
      "å°½": 2627,
      "è¾ĵ": 2628,
      "å¼Ĥ": 2629,
      "éİ®": 2630,
      "åħĭæĢĿ": 2631,
      "åĭŀ": 2632,
      "ä¸įéģİ": 2633,
      "éĢĻç¨®": 2634,
      "ot": 2635,
      "Ġ:": 2636,
      "æ±½": 2637,
      "æľŁéĸĵ": 2638,
      "è²´": 2639,
      "åĮĸçļĦ": 2640,
      "èĥ½åĬĽ": 2641,
      "è¡°": 2642,
      "æķĳ": 2643,
      "ä¼ĺ": 2644,
      "äººç±»": 2645,
      "è®²": 2646,
      "å¾µ": 2647,
      "ç§»æ°ĳ": 2648,
      "å¹ķ": 2649,
      "è£Ĥ": 2650,
      "Windows": 2651,
      "ä¹±": 2652,
      "èģĶåĲĪåĽ½": 2653,
      "éĽª": 2654,
      "æĥħåĨµ": 2655,
      "è¨Ńè¨Ī": 2656,
      "æ®ĸæ°ĳ": 2657,
      "å¢ĵ": 2658,
      "çłģ": 2659,
      "2010": 2660,
      "åŃ¸éĻ¢": 2661,
      "èĤ¡": 2662,
      "Â°": 2663,
      "çī§": 2664,
      "æĶ¿æ²»å±Ģ": 2665,
      "å¦ĥ": 2666,
      "ç£ģ": 2667,
      "åģ¥": 2668,
      "ç»Łæ²»": 2669,
      "ä¿¡ä»°": 2670,
      "çĶŁçĶ¢": 2671,
      "åĨ²": 2672,
      "Ġ12": 2673,
      "æĹĭ": 2674,
      "ä¸Ģæ¬¡": 2675,
      "è¡¡": 2676,
      "è¨Ĭ": 2677,
      "è¿İ": 2678,
      "em": 2679,
      "äº«": 2680,
      "ä¿ĥ": 2681,
      "éľį": 2682,
      "æĬĢè¡ĵ": 2683,
      "å°¾": 2684,
      "éĻ·": 2685,
      "å±ŀäºİ": 2686,
      "ãĢįãĢģãĢĮ": 2687,
      "èĩ³ä»Ĭ": 2688,
      "éĿł": 2689,
      "é§Ĳ": 2690,
      "ä½ľæĽ²": 2691,
      "çĶ·æ¼Ķåĵ¡": 2692,
      "çĽĳ": 2693,
      "ä¼Ĭæĸ¯": 2694,
      "æııè¿°": 2695,
      "åĽ½åĬ¡éĻ¢": 2696,
      "æľīéĻĲ": 2697,
      "æĿ°": 2698,
      "ç»Łä¸Ģ": 2699,
      "è§Ħæ¨¡": 2700,
      "èīºæľ¯": 2701,
      "å¸ĮèħĬ": 2702,
      "åºĹ": 2703,
      "è´¸": 2704,
      "å°¼äºļ": 2705,
      "æĪĲåĳĺ": 2706,
      "ä¹ĥ": 2707,
      "éĥĳ": 2708,
      "å¤ªå¹³": 2709,
      "ä¸ĺ": 2710,
      "çļĦä¸»": 2711,
      "åħĭæĸ¯": 2712,
      "åħ±çĶ¢é»¨": 2713,
      "ç¬¬åĽĽ": 2714,
      "æľīçļĦ": 2715,
      "åŃ¦çĶŁ": 2716,
      "ess": 2717,
      "èıľ": 2718,
      "çĤ¸": 2719,
      "çĽ¸åĲĮ": 2720,
      "æħ¶": 2721,
      "æħĪ": 2722,
      "æĸĩä»¶": 2723,
      "è¡ĮæĺŁ": 2724,
      "æŃ¸": 2725,
      "å¥Ĺ": 2726,
      "çĬ¹å¤ª": 2727,
      "ä¸½": 2728,
      "èİİ": 2729,
      "av": 2730,
      "ĠV": 2731,
      "å¤©æ´¥": 2732,
      "çģŃ": 2733,
      "åħ¬åħ±": 2734,
      "åĪĨåĪ«": 2735,
      "åħ©åĢĭ": 2736,
      "ä¼°": 2737,
      "åĨ°": 2738,
      "å¤©ä¸»æķĻ": 2739,
      "æľĢç»Ī": 2740,
      "æĪĳä»¬": 2741,
      "è³ĩæĸĻ": 2742,
      "è¡ĮçĤº": 2743,
      "Ġ16": 2744,
      "å®Ŀ": 2745,
      "å¼±": 2746,
      "SB": 2747,
      "ad": 2748,
      "èĪĬ": 2749,
      "åĪĨå¸ĥ": 2750,
      "åĳ½åĲį": 2751,
      "æĿŃ": 2752,
      "ä¸īå¹´": 2753,
      "2005": 2754,
      "çĶµåŃĲ": 2755,
      "è«ĭ": 2756,
      "è¼¯": 2757,
      "65": 2758,
      "åĢŁ": 2759,
      "åĩı": 2760,
      "ä¸»æĮģ": 2761,
      "åŃ¸çĶŁ": 2762,
      "å²³": 2763,
      "æľĢå¤§": 2764,
      "ç¥Ń": 2765,
      "æĭĶ": 2766,
      "im": 2767,
      "éĩıçļĦ": 2768,
      "éłĺå°İ": 2769,
      "ä¸Ńèı¯äººæ°ĳåħ±åĴĮåľĭ": 2770,
      "æĪĪ": 2771,
      "Ġ/": 2772,
      "æī¾": 2773,
      "åĩºçļĦ": 2774,
      "å¤§èĩ£": 2775,
      "çĽĸ": 2776,
      "åŃ¸èĢħ": 2777,
      "æį·": 2778,
      "åħĦ": 2779,
      "åıĬåħ¶": 2780,
      "æķħäºĭ": 2781,
      "ä¸Ģå¹´": 2782,
      "éĽľ": 2783,
      "å¸ĮæľĽ": 2784,
      "èĻ½çĦ¶": 2785,
      "ä½ł": 2786,
      "èĹĿè¡ĵ": 2787,
      ");": 2788,
      "åįģåĪĨ": 2789,
      "åĬłæĭ¿": 2790,
      "éŀ": 2791,
      "éģ·": 2792,
      "åıįå¯¹": 2793,
      "ç°½": 2794,
      "èĩĺ": 2795,
      "æĭĴ": 2796,
      "ä¿¡æģ¯": 2797,
      "æķĻæİĪ": 2798,
      "éģ¸èĪī": 2799,
      "é½Ĭ": 2800,
      "æ¦®": 2801,
      "åĮĸåŃ¦": 2802,
      "å®¾": 2803,
      "ä½©": 2804,
      "æĪĢ": 2805,
      "æķ°åŃ¦": 2806,
      "æľºåľº": 2807,
      "çŃīäºº": 2808,
      "ç»ĦæĪĲ": 2809,
      "2007": 2810,
      "2008": 2811,
      "éª¨": 2812,
      "éľ²": 2813,
      "æĭīä¸ģ": 2814,
      "ä¸°": 2815,
      "åĦĢ": 2816,
      "æ£ĭ": 2817,
      "å®Ļ": 2818,
      "èį¯": 2819,
      "åŃŁ": 2820,
      "è¾Ľ": 2821,
      "èĳ¬": 2822,
      "çī¹åĪ«": 2823,
      "æĢ»çĲĨ": 2824,
      "æĺł": 2825,
      "æĹ§": 2826,
      "èĩ¨": 2827,
      "éļĶ": 2828,
      "æĪ¶": 2829,
      "åİ»ä¸ĸ": 2830,
      "38": 2831,
      "æ´ŀ": 2832,
      "ä½įç½®": 2833,
      "ç¨ĭåº¦": 2834,
      "å®ľ": 2835,
      "æĻ®éģį": 2836,
      "èģŀ": 2837,
      "æĵģæľī": 2838,
      "çļĦæĸ°": 2839,
      "åĤĳ": 2840,
      "å²©": 2841,
      "åĶ®": 2842,
      "èĩºåĮĹ": 2843,
      "åĳ³": 2844,
      "éĹ»": 2845,
      "å°İèĩ´": 2846,
      "Ġm": 2847,
      "45": 2848,
      "åĦĦ": 2849,
      "ä¸ĸçķĮä¸Ĭ": 2850,
      "èģĶéĤ¦": 2851,
      "ay": 2852,
      "åīįå¾Ģ": 2853,
      "å»ºç¯ī": 2854,
      "çıł": 2855,
      "ä¸ĢæŃ¥": 2856,
      "åħ±æľī": 2857,
      "åĪĨä¸º": 2858,
      "åħ¨éĥ¨": 2859,
      "èī²åĪĹ": 2860,
      "åĲ¯": 2861,
      "è®¿": 2862,
      "æģĨ": 2863,
      "éĻĲåĪ¶": 2864,
      "æ°ĳåĽ½": 2865,
      "ç²¹": 2866,
      "ãĥ": 2867,
      "ä»¥èī²åĪĹ": 2868,
      "é¼ĵ": 2869,
      "æ¸Ľ": 2870,
      "èĲĦ": 2871,
      "åĤ·": 2872,
      "èĳĹåĲįçļĦ": 2873,
      "åľĪ": 2874,
      "75": 2875,
      "åĵ²åŃ¦": 2876,
      "æľĢåĲİ": 2877,
      "éĥŃ": 2878,
      "èĳ¡èĲĦ": 2879,
      "æ®Ĭ": 2880,
      "è«ĩ": 2881,
      "çĳª": 2882,
      "oc": 2883,
      "é»ĺ": 2884,
      "é«ĺéĢŁ": 2885,
      "å®ŀçİ°": 2886,
      "åı«": 2887,
      "åıĳè¡¨": 2888,
      "è®¾ç«ĭ": 2889,
      "hk": 2890,
      "è°Ī": 2891,
      "çĳŁ": 2892,
      "è¶ħè¿ĩ": 2893,
      "æĿ¥èĩª": 2894,
      "å®ŀéªĮ": 2895,
      "å±ħä½ı": 2896,
      "æł¸å¿ĥ": 2897,
      "çĽ£": 2898,
      "æĵ´": 2899,
      "ç²Ĵ": 2900,
      "è¼ķ": 2901,
      "æļĹ": 2902,
      "åĩ¡": 2903,
      "æ²³åįĹ": 2904,
      "æĺİæľĿ": 2905,
      "2006": 2906,
      "è»įéļĬ": 2907,
      "è¿ĩç¨ĭ": 2908,
      "åıįå°į": 2909,
      "å¸ģ": 2910,
      "ĠåıĤèĢĥæĸĩçĮ®": 2911,
      "SBN": 2912,
      "èĢħçļĦ": 2913,
      "æŁ³": 2914,
      "åĪĨåĪ¥": 2915,
      "çĽ¸éĹľ": 2916,
      "è±Ĳ": 2917,
      "ä¼Ĭæĭīåħĭ": 2918,
      "çİ¯å¢ĥ": 2919,
      "ä¸įåı¯": 2920,
      "æ¢°": 2921,
      "ç²¾ç¥ŀ": 2922,
      "æ±ĩ": 2923,
      "å·ŀå¸Ĥ": 2924,
      "èĳ£": 2925,
      "éģ©": 2926,
      "æ§į": 2927,
      "ĠSt": 2928,
      "èĪªå¤©": 2929,
      "64": 2930,
      "åħ»": 2931,
      "çĽ®çļĦ": 2932,
      "åĲĽä¸»": 2933,
      "æ³ī": 2934,
      "çĽ¸åħ³": 2935,
      "è·Ł": 2936,
      "éĦ§": 2937,
      "æįķ": 2938,
      "èĽĭçĻ½": 2939,
      "æĪª": 2940,
      "ä¸ĸçķĮå¤§": 2941,
      "æĭ¼": 2942,
      "å®¡": 2943,
      "å¹¶ä¸Ķ": 2944,
      "å®ĩå®Ļ": 2945,
      "ä¼´": 2946,
      "æį¢": 2947,
      "æĺ¯ä¸ŃåĽ½": 2948,
      "ity": 2949,
      "ä¸Ģèµ·": 2950,
      "2011": 2951,
      "åĬĽçļĦ": 2952,
      "éĢ²åħ¥": 2953,
      "æĹħæ¸¸": 2954,
      "è¥¿éĥ¨": 2955,
      "éĥ½æľī": 2956,
      "åį´": 2957,
      "çµĲæ§ĭ": 2958,
      "ĠIn": 2959,
      "ä¸įå°ĳ": 2960,
      "éĺ¿æĭīä¼¯": 2961,
      "åģı": 2962,
      "éĺ»": 2963,
      "åįģå¹´": 2964,
      "åĬłæĭ¿å¤§": 2965,
      "åĢĴ": 2966,
      "æ¯Ķä¾ĭ": 2967,
      "çŃĶ": 2968,
      "è²¡": 2969,
      "ä¸ľåĮĹ": 2970,
      "ä¾Ĩèĩª": 2971,
      "å¿ĥçĲĨ": 2972,
      "è¾ĳ": 2973,
      "å¼¦": 2974,
      "éĽĨåĽ¢": 2975,
      "33": 2976,
      "åħ¶å®ĥ": 2977,
      "éĿĪ": 2978,
      "2009": 2979,
      "æĿ¥çļĦ": 2980,
      "æ¨ĵ": 2981,
      "äº§ä¸ļ": 2982,
      "åĨįæ¬¡": 2983,
      "è¥¿äºŀ": 2984,
      "2003": 2985,
      "åĢį": 2986,
      "ç¤İ": 2987,
      "å¼ķèµ·": 2988,
      "çĩķ": 2989,
      "éģĬæĪ²": 2990,
      "åĽ°": 2991,
      "è²¿": 2992,
      "éĻĦè¿ĳ": 2993,
      "åľ¨æŃ¤": 2994,
      "äººå¤§": 2995,
      "ç´Ĳ": 2996,
      "åŁºåĽł": 2997,
      "èĳī": 2998,
      "ä¸Ģä¸ĸ": 2999,
      "åĳĪ": 3000,
      "åŁºç¤İ": 3001,
      "ä¼¤": 3002,
      "èĳĽ": 3003,
      "äººå£«": 3004,
      "è®¡ç®Ĺæľº": 3005,
      "ä»¥ä¸ĭ": 3006,
      "è²ĿçĪ¾": 3007,
      "åŁºçĿ£æķĻ": 3008,
      "æĺŃ": 3009,
      "è¨İ": 3010,
      "ä¿ĿæĮģ": 3011,
      "å¸Įèĩĺ": 3012,
      "èµĦæºĲ": 3013,
      "è¡Ŀ": 3014,
      "è½¨": 3015,
      "çµĲæŀľ": 3016,
      "å·¦åı³": 3017,
      "Ġä¸Ń": 3018,
      "æĴĴ": 3019,
      "ä¼ģä¸ļ": 3020,
      "èĤī": 3021,
      "ä¸¾è¡Į": 3022,
      "å±Ĩ": 3023,
      "æĵįä½ľ": 3024,
      "ce": 3025,
      "å¯¶": 3026,
      "å±±ä¸ľ": 3027,
      "å¸¸å§Ķ": 3028,
      "å®ĥä»¬": 3029,
      "çĻ¾ç§ĳ": 3030,
      "Ġd": 3031,
      "çĶ¨çļĦ": 3032,
      "å·¥æ¥Ń": 3033,
      "æ²³æµģ": 3034,
      "ä¹ĭå¤ĸ": 3035,
      "é¡»": 3036,
      "æľįåĬ¡": 3037,
      "éĴ±": 3038,
      "å¹£": 3039,
      "æĸ¯ç§ĳ": 3040,
      "è¾¾åĪ°": 3041,
      "çļĦçī¹": 3042,
      "36": 3043,
      "æĢ¥": 3044,
      "ç«ĭæ³ķ": 3045,
      "ç©¿": 3046,
      "åĮĸåŃ¸": 3047,
      "åħ±åĴĮåĽ½": 3048,
      "çºªå¿µ": 3049,
      "Ġåīį": 3050,
      "çĸ¾": 3051,
      "éķ¿æ±Ł": 3052,
      "ç»ľ": 3053,
      "é£¾": 3054,
      "2004": 3055,
      "æĻ®éĢļ": 3056,
      "å±ħæ°ĳ": 3057,
      "è¼¸": 3058,
      "é«ĺçŃī": 3059,
      "æĻī": 3060,
      "æĮ¥": 3061,
      "è¹": 3062,
      "éĩĮæĸ¯": 3063,
      "æŃ¦åĻ¨": 3064,
      "Ġ*": 3065,
      "éĥİ": 3066,
      "éĽĨä¸Ń": 3067,
      "éļıçĿĢ": 3068,
      "ä¸ºäºĨ": 3069,
      "è´¢": 3070,
      "çļĦåĲį": 3071,
      "è¥¿äºļ": 3072,
      "Ġ11": 3073,
      "è´§": 3074,
      "çĦ¡æ³ķ": 3075,
      "èĢĮåľ¨": 3076,
      "ç¢³": 3077,
      "æ°§åĮĸ": 3078,
      "ç¤¾ä¼ļä¸»ä¹ī": 3079,
      "å¤ªç©º": 3080,
      "èĦ±": 3081,
      "ew": 3082,
      "ä¹Ī": 3083,
      "æµĻæ±Ł": 3084,
      "è·¨": 3085,
      "å·ŀçļĦ": 3086,
      "åķŁ": 3087,
      "çİ°åľ¨": 3088,
      "å¤©ä¸ĭ": 3089,
      "å°ıèªª": 3090,
      "éĢĲæ¸Ĳ": 3091,
      "çŁ¿": 3092,
      "éĢĤ": 3093,
      "å¶": 3094,
      "å®¶åºŃ": 3095,
      "âĶ": 3096,
      "188": 3097,
      "è¶Ļ": 3098,
      "å°º": 3099,
      "èģ¯éĤ¦": 3100,
      "æĭĽ": 3101,
      "åĩºäºĨ": 3102,
      "å¨ģå»ī": 3103,
      "éĢīä¸¾": 3104,
      "Ġéĺ¿": 3105,
      "æĸĩæĺİ": 3106,
      "æ¯ıå¹´": 3107,
      "åľĭçİĭ": 3108,
      "åıĤåĬł": 3109,
      "éĽ¶": 3110,
      "éĺµ": 3111,
      "åħ¥ä¾µ": 3112,
      "çµĲæĿŁ": 3113,
      "è¡¥": 3114,
      "åıĸä»£": 3115,
      "è¥¿åįĹ": 3116,
      "åıªæĺ¯": 3117,
      "ç¾½": 3118,
      "è±ª": 3119,
      "è®¨": 3120,
      "åħ¬åħĥåīį": 3121,
      "åĮºåŁŁ": 3122,
      "åĽĽå·Ŀ": 3123,
      "ap": 3124,
      "éĢŁåº¦": 3125,
      "è½¯ä»¶": 3126,
      "od": 3127,
      "æıĽ": 3128,
      "å®ŀéĻħ": 3129,
      "åįķä½į": 3130,
      "éĳ": 3131,
      "æĺ¯åĲ¦": 3132,
      "èµµ": 3133,
      "éļľ": 3134,
      "è§Ĵèī²": 3135,
      "åľ°çļĦ": 3136,
      "åĬłåĿ¡": 3137,
      "æĢ»äººåı£": 3138,
      "æ£Ģ": 3139,
      "å¿ħéłĪ": 3140,
      "éĪ": 3141,
      "æµģè¡Į": 3142,
      "1990": 3143,
      "68": 3144,
      "ab": 3145,
      "2013": 3146,
      "Ġ.": 3147,
      "é¢ĳ": 3148,
      "ĠæĿİ": 3149,
      "åŃ©": 3150,
      "å¥Ī": 3151,
      "çµĦæĪĲ": 3152,
      "ex": 3153,
      "æľĢä½³": 3154,
      "ç¥¥": 3155,
      "å°¤åħ¶": 3156,
      "æĸ¯åŁº": 3157,
      "åįĪ": 3158,
      "æ®¿": 3159,
      "æĿĲæĸĻ": 3160,
      "ä½ľæĽ²å®¶": 3161,
      "åıĽ": 3162,
      "ç¾İæ´²": 3163,
      "å¤ļæ¬¡": 3164,
      "ç¨ĭå¼ı": 3165,
      ":ãĢĬ": 3166,
      "åĽ½åĨħ": 3167,
      "æķ¬": 3168,
      "âĶĢ": 3169,
      "æĭį": 3170,
      "è¨Ĥ": 3171,
      "åħ±åĴĮåľĭ": 3172,
      "è¡£": 3173,
      "çļĦéĩįè¦ģ": 3174,
      "å±ĭ": 3175,
      "æĢĢ": 3176,
      "å®ļç¾©": 3177,
      "éįµ": 3178,
      "å¤«äºº": 3179,
      "Ġ15": 3180,
      "ãĢĤãĢĬ": 3181,
      "ä¹Ķ": 3182,
      "åĲĦç¨®": 3183,
      "äºĮä¸ĸ": 3184,
      "éĵ¾æİ¥": 3185,
      "è´Łè´£": 3186,
      "å®¶æĹı": 3187,
      "åºŁ": 3188,
      "çĪ²": 3189,
      "ç¬¬äºĶ": 3190,
      "åħ¬æ°ĳ": 3191,
      "è¢ĸ": 3192,
      "æİĴåĲį": 3193,
      "å¤·": 3194,
      "æĥħæ³ģ": 3195,
      "é¨": 3196,
      "æĺĨ": 3197,
      "çĤ®": 3198,
      "è½»": 3199,
      "è³ĵ": 3200,
      "èĦĳ": 3201,
      "éĺ¶çº§": 3202,
      "44": 3203,
      "éłĨ": 3204,
      "ä½Ĩåľ¨": 3205,
      "æ·®": 3206,
      "éģŃåĪ°": 3207,
      "2012": 3208,
      "æ¶²": 3209,
      "å½©": 3210,
      "æĸ°åĬłåĿ¡": 3211,
      "æ£Ĵ": 3212,
      "ub": 3213,
      "åĶĲæľĿ": 3214,
      "éı": 3215,
      "ä¸ºä¸»": 3216,
      "åĮĹæĸ¹": 3217,
      "åĪĨçĤº": 3218,
      "ä½ľèĢħ": 3219,
      "åħ§å®¹": 3220,
      "äº¨": 3221,
      "åĩ½": 3222,
      "æĭīæĸ¯": 3223,
      "æľīäºĽ": 3224,
      "éĶĭ": 3225,
      "çīĻåĪ©": 3226,
      "åĮĪçīĻåĪ©": 3227,
      "éĽ»èħ¦": 3228,
      "ä»¥æĿ¥": 3229,
      "çľ¼": 3230,
      "è¤ĩ": 3231,
      "39": 3232,
      "å¹¼": 3233,
      "ä»ª": 3234,
      "ç»ĵæŀľ": 3235,
      "è¥¿èĹı": 3236,
      "éĢ±": 3237,
      "å±±å¤§": 3238,
      "æŁıæŀĹ": 3239,
      "äººåĳĺ": 3240,
      "éģ£": 3241,
      "åįĹåĮĹ": 3242,
      "æ¯Ķå¦Ĥ": 3243,
      "é¬¥": 3244,
      "32": 3245,
      "55": 3246,
      "çĽ¸çķ¶": 3247,
      "èĬ³": 3248,
      "è§Ħå®ļ": 3249,
      "çİĦ": 3250,
      "37": 3251,
      "å¢ĥåĨħ": 3252,
      "è´¸æĺĵ": 3253,
      "åħ¹": 3254,
      "å¹³åİŁ": 3255,
      "Ġ|-": 3256,
      "åº·çĨĻ": 3257,
      "å¼¹": 3258,
      "è²¨": 3259,
      "æ¡Ĥ": 3260,
      "åıĥèĪĩ": 3261,
      ",ãĢĮ": 3262,
      "if": 3263,
      "åĩ±": 3264,
      "Ġ190": 3265,
      "å®ļä¹ī": 3266,
      "éĩįåºĨ": 3267,
      "å¥ĳ": 3268,
      "ä¸ŃåĽ½åħ±äº§åħļ": 3269,
      "æ©Łæ§ĭ": 3270,
      "æĮ¯": 3271,
      "æī¹åĩĨ": 3272,
      "éĿĴå²Ľ": 3273,
      "èĪīè¡Į": 3274,
      "æĭħä»»": 3275,
      "éģİç¨ĭ": 3276,
      "å®ĥçļĦ": 3277,
      "åĽ½çİĭ": 3278,
      "æ¨¡å¼ı": 3279,
      "è¶ħéģİ": 3280,
      "åľ°åĪ©": 3281,
      "å¹³æĸ¹åħ¬éĩĮ": 3282,
      "æīİ": 3283,
      "ç¸½çĲĨ": 3284,
      "ä¼¸": 3285,
      "éĶĢ": 3286,
      "ä¼¯çī¹": 3287,
      "è®°è½½": 3288,
      "èĥ½å¤Ł": 3289,
      "æľĢçµĤ": 3290,
      "åĪ©äºļ": 3291,
      "ç´Ħç¿°": 3292,
      "å¥ª": 3293,
      "æĶ¿æĿĥ": 3294,
      "åĲĮæĦı": 3295,
      "æŁĲäºĽ": 3296,
      "å·¡": 3297,
      "ç¡¬": 3298,
      "2015": 3299,
      "è¨ª": 3300,
      "éĿĸ": 3301,
      "éĢĲæ¼¸": 3302,
      "æ³Ĭ": 3303,
      "æ»¨": 3304,
      "æ³¢åħ°": 3305,
      "Ġw": 3306,
      "98": 3307,
      "2014": 3308,
      "å§»": 3309,
      "......": 3310,
      "åŃ¦ä¹ł": 3311,
      "è¿ĳä»£": 3312,
      "ä¸įä¹ħ": 3313,
      "2020": 3314,
      "è¿Ļæĺ¯": 3315,
      "çļĦæĦı": 3316,
      "æľīéĹľ": 3317,
      "å±¬æĸ¼": 3318,
      "çĪĨçĻ¼": 3319,
      "ph": 3320,
      "è¸": 3321,
      "ivers": 3322,
      "å¾¡": 3323,
      "è¦Ĩ": 3324,
      "åĲİçļĦ": 3325,
      "åºĦ": 3326,
      "çĻ¼è¡¨": 3327,
      "èıĮ": 3328,
      "æĹ¢": 3329,
      "åī²": 3330,
      "åŃĲçļĦ": 3331,
      "é¡ĺ": 3332,
      "å¤º": 3333,
      "çĪĨåıĳ": 3334,
      "å¹ħ": 3335,
      "2016": 3336,
      "åºĶçĶ¨": 3337,
      "46": 3338,
      "å¹´åīį": 3339,
      "æ¡ĳ": 3340,
      "åĲĦç§į": 3341,
      "èĹ¥": 3342,
      "å°ĳæķ°": 3343,
      "çĳŀåħ¸": 3344,
      "è¢«ç§°ä¸º": 3345,
      "è²¿æĺĵ": 3346,
      "åŁºåľ°": 3347,
      "èĵĭ": 3348,
      "çĤİ": 3349,
      "çİĽ": 3350,
      "çº¦ç¿°": 3351,
      "éĻ°": 3352,
      "åĬłä¸Ĭ": 3353,
      "æ¨Ļæºĸ": 3354,
      "å¼ĢæĶ¾": 3355,
      "çı¾åľ¨": 3356,
      "åĸ¬": 3357,
      "è¬Ľ": 3358,
      "çŃīçŃī": 3359,
      "çĢ": 3360,
      "éĥ¨ä»½": 3361,
      "èĢĮæĺ¯": 3362,
      "ä½ĵèĤ²": 3363,
      "æĪĳåĢĳ": 3364,
      "||": 3365,
      "åŃ¸æł¡": 3366,
      "é£ŀæľº": 3367,
      "å³¡": 3368,
      "à¸": 3369,
      "ä¾ĨçļĦ": 3370,
      "ç¦ģæŃ¢": 3371,
      "ä»Ļ": 3372,
      "äººåľ¨": 3373,
      "åĭĥ": 3374,
      "æģĴ": 3375,
      "æĪĸæĺ¯": 3376,
      "ä½¿çĶ¨çļĦ": 3377,
      "åĮ¹": 3378,
      "ç«¶": 3379,
      "2001": 3380,
      "åŃ¦èĢħ": 3381,
      "åĲĮçĽŁ": 3382,
      "æı®": 3383,
      "ĠUn": 3384,
      "è®¢": 3385,
      "åı¤åħ¸": 3386,
      "çŁ¥è¯Ĩ": 3387,
      "åĸ®ä½į": 3388,
      "è¡Įä¸º": 3389,
      "é¤Ĭ": 3390,
      "éĸ©": 3391,
      "ç¬¬ä¸Ģä¸ª": 3392,
      "åī¯ä¸»å¸Ń": 3393,
      "äººä»¬": 3394,
      "æĦ¿": 3395,
      "é¦ĸçĽ¸": 3396,
      "æĩ·": 3397,
      "æ°´å¹³": 3398,
      "åħĥå¹´": 3399,
      "åĵĪå°Ķ": 3400,
      "å¯¦éļĽ": 3401,
      "æ¨¹": 3402,
      "æµª": 3403,
      "æĶ¿æ¬Ĭ": 3404,
      "è¿Ļæł·": 3405,
      "47": 3406,
      "ç»ıè¿ĩ": 3407,
      "è¡Įåĭķ": 3408,
      "åĬ¨çī©": 3409,
      "å¿ħé¡»": 3410,
      "æĵĶä»»": 3411,
      "ue": 3412,
      "éĦŃ": 3413,
      "ä½Ĳ": 3414,
      "å»¢": 3415,
      "æŁ¯": 3416,
      "éĴĪ": 3417,
      "çĶŁåĳ½": 3418,
      "åĲĪçī©": 3419,
      "å·¥åħ·": 3420,
      "ç½ĳç»ľ": 3421,
      "è¡ĮæĶ¿åĮº": 3422,
      "èĮ²": 3423,
      "95": 3424,
      "åĪ©äºŀ": 3425,
      "åħ¨éĿ¢": 3426,
      "ä¼ĬæľĹ": 3427,
      "ä¸ŃåĽ½äººæ°ĳ": 3428,
      "åĽĽå¹´": 3429,
      "é©¬æĿ¥": 3430,
      "çĶ·æĢ§": 3431,
      "1980": 3432,
      "èģ¯åĲĪåľĭ": 3433,
      "ç§Ł": 3434,
      "ov": 3435,
      "ä¿ĿçķĻ": 3436,
      "ä¸ĭéĻį": 3437,
      "é¢ĨåŁŁ": 3438,
      "è¦ıæ¨¡": 3439,
      "å¸Ĥåł´": 3440,
      "åĬĽéĩı": 3441,
      "æ¨¡åŀĭ": 3442,
      "æłĳ": 3443,
      "åİĤ": 3444,
      "åľĨ": 3445,
      "2002": 3446,
      "äºĶå¹´": 3447,
      "ç¿¼": 3448,
      "ç¢¼": 3449,
      "æĹłæ³ķ": 3450,
      "åıĳå¸ĥ": 3451,
      "åĢĭäºº": 3452,
      "æľĢåĪĿ": 3453,
      "å½¼å¾Ĺ": 3454,
      "æĬĺ": 3455,
      "çĽ¸å¯¹": 3456,
      "å°¼åħĭ": 3457,
      "æģĨæĺŁ": 3458,
      "èĭ¦": 3459,
      "çµ±ä¸Ģ": 3460,
      "çĩĥ": 3461,
      "Ġå¤ĸéĥ¨éĵ¾æİ¥": 3462,
      "ä¸Ģç§į": 3463,
      "çļĦäººåı£": 3464,
      "åģ¶åĥı": 3465,
      "ian": 3466,
      "åĿĲ": 3467,
      "è¿ĶåĽŀ": 3468,
      "ç§Ĵ": 3469,
      "åľ°éľĩ": 3470,
      "å£¤": 3471,
      "éĩĩçĶ¨": 3472,
      "ç»§ç»Ń": 3473,
      "çİĭåľĭ": 3474,
      "è²¢": 3475,
      "åīµä½ľ": 3476,
      "éĢ£çµĲ": 3477,
      "æĪĲéĥ½": 3478,
      "2017": 3479,
      "æĶ¶åħ¥": 3480,
      "åįģä¸Ģ": 3481,
      "å¦ĤæŃ¤": 3482,
      "åĿļ": 3483,
      "éº»": 3484,
      "ell": 3485,
      "éĢıéģİ": 3486,
      "ĠåıĥèĢĥ": 3487,
      "åĽ½çļĦ": 3488,
      "å¤©çļĩ": 3489,
      "éģľ": 3490,
      "ä»ĺ": 3491,
      "ä¸įå¾Ĺ": 3492,
      "çĲĥéģĭåĭķåĵ¡": 3493,
      "åĨħå®¹": 3494,
      "æ©ĭ": 3495,
      "è¦º": 3496,
      "åįĹæĸ¹": 3497,
      "åķĨä¸ļ": 3498,
      "åĳ¨æģ©": 3499,
      "å®Ľ": 3500,
      "å±ł": 3501,
      "èģ¯çĽŁ": 3502,
      "éĤĦæľī": 3503,
      "èĥ½å¤ł": 3504,
      "34": 3505,
      "Ġè¥¿": 3506,
      "åıĤä¸İ": 3507,
      "67": 3508,
      "ä»»åĳ½": 3509,
      "çıį": 3510,
      "è¦ĸçĤº": 3511,
      "éģĤ": 3512,
      "åĩ¯": 3513,
      "åŁºéĩĳ": 3514,
      "èªĮ": 3515,
      "è½®": 3516,
      "æĸĩç«ł": 3517,
      "èĭ±æł¼": 3518,
      "å©ļå§»": 3519,
      "èį·èĺŃ": 3520,
      "ä¸įåĨį": 3521,
      "ä¸»å¼µ": 3522,
      "åľ³": 3523,
      "éĥ¨éļĬ": 3524,
      "èĮĥåĽ´": 3525,
      "éĸ£": 3526,
      "åłħ": 3527,
      "ä¸Ńå±±": 3528,
      "ä¼ı": 3529,
      "éļ¨èĳĹ": 3530,
      "ine": 3531,
      "(),": 3532,
      "çļĦé«ĺ": 3533,
      "æľĪçĲĥ": 3534,
      "å¾Ĺä¸»": 3535,
      "çĳŀå£«": 3536,
      "ä¼¦æķ¦": 3537,
      "éī": 3538,
      "2021": 3539,
      "å¥½çļĦ": 3540,
      "è²łè²¬": 3541,
      "2018": 3542,
      "ä¸Ģç¨®": 3543,
      "è¡ĮæĶ¿åįĢ": 3544,
      "èģĶçĽŁ": 3545,
      "ä¿®æĶ¹": 3546,
      "æĶĿ": 3547,
      "ä»¥åīį": 3548,
      "2019": 3549,
      "çĶ¨æĸ¼": 3550,
      "æºª": 3551,
      "éĵ¶è¡Į": 3552,
      "åĪ¶éĢł": 3553,
      "æĤ£": 3554,
      "äºķ": 3555,
      "éĩĿ": 3556,
      "éĥ¨éĺŁ": 3557,
      "åıĳåĬ¨": 3558,
      "éĩįçĤ¹": 3559,
      "åĵ²åŃ¸": 3560,
      "ge": 3561,
      "çĹĩ": 3562,
      "ä»£è¡¨å¤§ä¼ļ": 3563,
      "å°ıå¹³": 3564,
      "èĻİ": 3565,
      "èĥ½éĩı": 3566,
      "åĤ¨": 3567,
      "åı¸ä»¤": 3568,
      "ĠCh": 3569,
      "æ¸¸æĪı": 3570,
      "ç¹¼çºĮ": 3571,
      "è´¡": 3572,
      "--": 3573,
      "é±": 3574,
      "çļĦæµ·": 3575,
      "1997": 3576,
      "æľįåĭĻ": 3577,
      "éĦī": 3578,
      "The": 3579,
      "ç¨³": 3580,
      "éĺ¿çĪ¾": 3581,
      "èĭ±æĸĩ": 3582,
      "çĽ§": 3583,
      "é¦¬åħĭæĢĿ": 3584,
      "çļĩåĲİ": 3585,
      "99": 3586,
      "çļĦæĶ¿æ²»": 3587,
      "äºŀæ´²": 3588,
      "èĶ£": 3589,
      "è»Į": 3590,
      "åı°æ¹¾": 3591,
      "ç´Ģå¿µ": 3592,
      "å¾ĳ": 3593,
      "åºĻ": 3594,
      "éĸĭçĻ¼": 3595,
      "è¨ĪåĬĥ": 3596,
      "æĿ¡çº¦": 3597,
      "èģ·æ¥Ń": 3598,
      "å®¿": 3599,
      "ä¼į": 3600,
      "æĸ°çĸĨ": 3601,
      "æıĲé«ĺ": 3602,
      "åĭĩ": 3603,
      "åįģåħŃ": 3604,
      "å¹¶ä¸į": 3605,
      "æģ¢å¤į": 3606,
      "ç¢ĳ": 3607,
      "æ·±åľ³": 3608,
      "ä¸Ģå®ļ": 3609,
      "æ¯«": 3610,
      "èĮ¶": 3611,
      "Ġn": 3612,
      "å¸®": 3613,
      "è¿ħéĢŁ": 3614,
      "500": 3615,
      "èĳ¡èĲĦçīĻ": 3616,
      "58": 3617,
      "éļ¶": 3618,
      "ç¦ıå·ŀ": 3619,
      "æ°ĶåĢĻ": 3620,
      "ä¹¾éļĨ": 3621,
      "ik": 3622,
      "æĺ¯ä¸Ģä¸ª": 3623,
      "æĴ°": 3624,
      "ĠãĢĤ": 3625,
      "èªī": 3626,
      "æľ¬èº«": 3627,
      "çī©è´¨": 3628,
      "ä½µ": 3629,
      "ä¿ĺ": 3630,
      "è¥¿åĮĹ": 3631,
      "æ²ī": 3632,
      "æİ¥è¿ĳ": 3633,
      "åıįåºĶ": 3634,
      "æ¾³éĸĢ": 3635,
      "è«¾è²ĿçĪ¾": 3636,
      "åİļ": 3637,
      "éļª": 3638,
      "å¾·éĩĮ": 3639,
      "å¾Ĺä»¥": 3640,
      "å¹¿æ³Ľ": 3641,
      "Ġl": 3642,
      "ä½ĵçļĦ": 3643,
      "å¤ĦçĲĨ": 3644,
      "æĺ¥ç§ĭ": 3645,
      "ä¸¥éĩį": 3646,
      "æµ¦": 3647,
      "æŁ´": 3648,
      "åįĢåŁŁ": 3649,
      "åıĺåĮĸ": 3650,
      "æ¢Ŀç´Ħ": 3651,
      "èĹĿäºº": 3652,
      "ä»²": 3653,
      "åīĩæĺ¯": 3654,
      "åĪĿæľŁ": 3655,
      "æĽ°": 3656,
      "æĸ¹åĲĳ": 3657,
      "åİŁå§ĭ": 3658,
      "è¼ª": 3659,
      "69": 3660,
      "Ġa": 3661,
      "éĩĳå±ŀ": 3662,
      "éĽķ": 3663,
      "ç³ĸ": 3664,
      "ç²ī": 3665,
      "éĶĻ": 3666,
      "å¯¦é©Ĺ": 3667,
      "ä¸ŃåŃ¦": 3668,
      "è¾ħ": 3669,
      "å®½": 3670,
      "å¹´åľ¨": 3671,
      "ç½ķ": 3672,
      "è½Ħ": 3673,
      "ç©ºéĹ´": 3674,
      "å®ŀè¡Į": 3675,
      "èĦ«": 3676,
      "æĶ¹è®Ĭ": 3677,
      "èİī": 3678,
      "éĲµè·¯": 3679,
      "éłĺåŁŁ": 3680,
      "ĠPr": 3681,
      ").": 3682,
      "ä¹ı": 3683,
      "çī©è³ª": 3684,
      "è¡¨éĿ¢": 3685,
      "æĥ¡": 3686,
      "1949": 3687,
      "åĲ¾": 3688,
      "æ¯ķ": 3689,
      "çī¹æ®Ĭ": 3690,
      "é¢Ŀ": 3691,
      "çĮ¶": 3692,
      "éĺ¿å°Ķ": 3693,
      "éĵľ": 3694,
      "ĠåıĤè§ģ": 3695,
      "æĮīçħ§": 3696,
      "Ġé¦Ļæ¸¯": 3697,
      "æİª": 3698,
      "å·¥äºº": 3699,
      "åľĵ": 3700,
      "æĸ¹æ¡Ī": 3701,
      "åĲįä¸º": 3702,
      "ä¸Ńåľĭåħ±çĶ¢é»¨": 3703,
      "æĨ²æ³ķ": 3704,
      "çļĦä¸Ģä¸ª": 3705,
      "ä»¥å¤ĸ": 3706,
      "æĿŃå·ŀ": 3707,
      "59": 3708,
      "è¯¯": 3709,
      "èĪį": 3710,
      "çī¹èī²": 3711,
      "ç»¼": 3712,
      "éĥ¨èĲ½": 3713,
      "ç¾©å¤§åĪ©": 3714,
      "åŁĥåıĬ": 3715,
      "æľīæķĪ": 3716,
      "åĭķçī©": 3717,
      "æĮĩæĮ¥": 3718,
      "çŁ¥åĲį": 3719,
      "æķı": 3720,
      "éĩĳèŀį": 3721,
      "åĳ½ä»¤": 3722,
      "Ġ||": 3723,
      "è´Ŀå°Ķ": 3724,
      "Ġv": 3725,
      "æī¬": 3726,
      "æĦıå¿Ĺ": 3727,
      "è°¢": 3728,
      "ç¤¾æľĥä¸»ç¾©": 3729,
      "çĴ°å¢ĥ": 3730,
      "ä¸ŃåİŁ": 3731,
      "ç´«": 3732,
      "èµ·æºĲ": 3733,
      "è¶³çĲĥéģĭåĭķåĵ¡": 3734,
      "åĪĢ": 3735,
      "æľīæīĢ": 3736,
      "æĪĲäºĨ": 3737,
      "è¢Ń": 3738,
      "éĢĻæĺ¯": 3739,
      "å¹¿ä¸ľ": 3740,
      "èĢĮè¨Ģ": 3741,
      "å®ļå¾ĭ": 3742,
      "ard": 3743,
      "è¿·": 3744,
      "åıªèĥ½": 3745,
      "æī¹è©ķ": 3746,
      "å±±èĦ": 3747,
      "æĿ¥æºĲ": 3748,
      "æ¯Ķè¾ĥ": 3749,
      "æħ¢": 3750,
      "ç»į": 3751,
      "ä¸įè¿ĩ": 3752,
      "åľŁèĢ³": 3753,
      "76": 3754,
      "2022": 3755,
      "ç¦ıå»º": 3756,
      "åľŁèĢ³åħ¶": 3757,
      "ç¨¿": 3758,
      "çĽ¸äºĴ": 3759,
      "å¹´éĹ´": 3760,
      "ä¸īä¸ª": 3761,
      "ä»»åĬ¡": 3762,
      "èĩ³å°ĳ": 3763,
      "ä¸¦ä¸į": 3764,
      "æ²³åĮĹ": 3765,
      "ç»Łè®¡": 3766,
      "åĸĢ": 3767,
      "ob": 3768,
      "æľīåħ³": 3769,
      "çĤºä¸»": 3770,
      "all": 3771,
      "èģ½": 3772,
      "å¹¿å·ŀ": 3773,
      "å°İæ¼Ķ": 3774,
      "çŀ": 3775,
      "èº«ä»½": 3776,
      "æĽ¹æĵį": 3777,
      "çĨŁ": 3778,
      "æĬ¥åĳĬ": 3779,
      "éĬ·": 3780,
      "å¹´èµ·": 3781,
      "åı°åĮĹ": 3782,
      "åįļå£«": 3783,
      "49": 3784,
      "æĸ¯åį¡": 3785,
      "éĩįå¤§": 3786,
      "åįłé¢Ĩ": 3787,
      "æ²Īéĺ³": 3788,
      "æ¼¢åŃĹ": 3789,
      "å§Ĩæĸ¯": 3790,
      "éĺ´": 3791,
      "èª¤": 3792,
      "çŃīåľ°": 3793,
      "å¯¹è±¡": 3794,
      "ç·´": 3795,
      "åħ¬åĽŃ": 3796,
      "çŁ©": 3797,
      "éĿŀæ´²": 3798,
      "ç¯Ħåľį": 3799,
      "çº½çº¦": 3800,
      "43": 3801,
      "Ġçİĭ": 3802,
      "æĹ¶åĢĻ": 3803,
      "åħ¨å¸Ĥ": 3804,
      "åı¤å·´": 3805,
      "èĹ©": 3806,
      "1999": 3807,
      "å¯©": 3808,
      "åĽłç´ł": 3809,
      "åŀĭçļĦ": 3810,
      "42": 3811,
      "æĸ¯å¤§": 3812,
      "ä¸ªäºº": 3813,
      "1998": 3814,
      "ãĢı": 3815,
      "èĪĴ": 3816,
      "æĸĩçī©": 3817,
      "èĤ¥": 3818,
      "åĦĴå®¶": 3819,
      "ãĢİ": 3820,
      "çĲ³": 3821,
      "éĥ¨çļĦ": 3822,
      "åĮĹæµ·": 3823,
      "å±Ĭåħ¨åĽ½": 3824,
      "èĶ¡": 3825,
      "ä»¥ä¾Ĩ": 3826,
      "éº¼": 3827,
      "åħįçĸ«": 3828,
      "æīĢåľ¨": 3829,
      "è°ĭ": 3830,
      "Ġ978": 3831,
      "ou": 3832,
      "åĲĲ": 3833,
      "æŃ¡": 3834,
      "è£ľ": 3835,
      "é«ĶçļĦ": 3836,
      "ãĢģãĢģ": 3837,
      "ç¬¬åħŃ": 3838,
      "æ»ĳ": 3839,
      "ç«¹": 3840,
      "ä¹ĭéĸĵçļĦ": 3841,
      "éļİç´ļ": 3842,
      "è§£æĶ¾åĨĽ": 3843,
      "é«ĺçļĦ": 3844,
      "èĹį": 3845,
      "62": 3846,
      "æ¯ģ": 3847,
      "ç®Ń": 3848,
      "èĹī": 3849,
      "è¨ĺè¼ī": 3850,
      "é¢Ĩå¯¼äºº": 3851,
      "æģĲæĢ": 3852,
      "åĹ": 3853,
      "å¤ªåŃĲ": 3854,
      "æĺ¯æĮĩ": 3855,
      "å»¶ä¼¸": 3856,
      "åĴ¸": 3857,
      "å°ıè¯´": 3858,
      "ä¼½": 3859,
      "éŁĭ": 3860,
      "åĲĪæĪĲ": 3861,
      "æŃ¦æ±ī": 3862,
      "æī§è¡Į": 3863,
      "ran": 3864,
      "ç©©": 3865,
      "ç¼©": 3866,
      "å¤§æľĥ": 3867,
      "åĩºåı£": 3868,
      "æ¯Ķè¼ĥ": 3869,
      "77": 3870,
      "åĽłèĢĮ": 3871,
      "è¨Īç®Ĺ": 3872,
      "é¡¯ç¤º": 3873,
      "åħĦå¼Ł": 3874,
      "éĿĴå¹´": 3875,
      "èµŀ": 3876,
      "æ¬²": 3877,
      "è§£éĩĬ": 3878,
      "éļıåĲİ": 3879,
      "çģ¾": 3880,
      "ç±»ä¼¼": 3881,
      "éĮ¢": 3882,
      "åģľæŃ¢": 3883,
      "å¾ª": 3884,
      "èįĴ": 3885,
      "è½¨éģĵ": 3886,
      "åįĵ": 3887,
      "æĹ¥è»į": 3888,
      "åİĨåı²ä¸Ĭ": 3889,
      "è¥Ħ": 3890,
      "è²ĵ": 3891,
      "è§£éĩĭ": 3892,
      "ä¹ĭéĹ´çļĦ": 3893,
      "pe": 3894,
      "è®ĬåĮĸ": 3895,
      "è£½ä½ľ": 3896,
      "åľĭçļĦ": 3897,
      "è¥²": 3898,
      "äºĮå¹´": 3899,
      "åķĨæ¥Ń": 3900,
      "æ±¡": 3901,
      "åįĬå²Ľ": 3902,
      "æ¯Ľæ¾¤": 3903,
      "åļ´éĩį": 3904,
      "æķµ": 3905,
      "æ¼ĶåĶ±": 3906,
      "äº¿åħĥ": 3907,
      "Ġ+": 3908,
      "ç¾Ĭ": 3909,
      "è§ī": 3910,
      "ill": 3911,
      "å¤§å¤ļæķ°": 3912,
      "äººæŃ»äº¡": 3913,
      "å¸Ĥåľº": 3914,
      "éģ¿åħį": 3915,
      "èĩºåĮĹå¸Ĥ": 3916,
      "Ġ\"": 3917,
      "å¼ĺ": 3918,
      "é¡¾": 3919,
      "åįĬå³¶": 3920,
      "èĻķçĲĨ": 3921,
      "éģµ": 3922,
      "å¿½": 3923,
      "å®Įæķ´": 3924,
      "èİ«æĸ¯ç§ĳ": 3925,
      "æ¯Ľæ¾¤æĿ±": 3926,
      "BA": 3927,
      "å¦Ĥä½ķ": 3928,
      "ç´°èĥŀ": 3929,
      "ç»¼åĲĪ": 3930,
      "éŃĶ": 3931,
      "éĴ¢": 3932,
      "æĳĦ": 3933,
      "åŃ¸çļĦ": 3934,
      "èĭ±èªŀ": 3935,
      "åı¯èĥ½æĺ¯": 3936,
      "56": 3937,
      "èŃ°æľĥ": 3938,
      "åįłæĢ»äººåı£": 3939,
      "æľīäºº": 3940,
      "çŁ³æ²¹": 3941,
      "è¬Ĥ": 3942,
      "å°½ç®¡": 3943,
      "Ġç¾İåĽ½": 3944,
      "çļĦå½±åĵį": 3945,
      "åħ¬ä¸»": 3946,
      "çģ«å±±": 3947,
      "åı¬å¼Ģ": 3948,
      "èľĢ": 3949,
      "ç«ŀ": 3950,
      "æ¼Ķåĩº": 3951,
      "éĥ¨éķ¿": 3952,
      "ç¶ĵéģİ": 3953,
      "çļĦåľ°": 3954,
      "è·¯æĺĵ": 3955,
      "1945": 3956,
      "çĻ¼åĭķ": 3957,
      "äºļæ´²": 3958,
      "æģĲæĢĸ": 3959,
      "ĠåįĹ": 3960,
      "åĽ½éĺ²": 3961,
      "çĽ¸å°į": 3962,
      "åįļçī©é¦Ĩ": 3963,
      "éļĭ": 3964,
      "ä¸»è¦ģçļĦ": 3965,
      "é±¼": 3966,
      "ä¸¹éº¦": 3967,
      "çĸ¾çĹħ": 3968,
      "è¡ĮåĬ¨": 3969,
      "äº¤æµģ": 3970,
      "å¾Ģå¾Ģ": 3971,
      "%;": 3972,
      "Ġæ³¨": 3973,
      "çĻĤ": 3974,
      "æ¬¢": 3975,
      "éģĵå¾·": 3976,
      "çļĩå®¶": 3977,
      "é¡¹çĽ®": 3978,
      "cn": 3979,
      "çļĦåīį": 3980,
      "å¹»": 3981,
      "çĲĨè§£": 3982,
      "åŃ¦ç§ĳ": 3983,
      "çİ»": 3984,
      "è¶£": 3985,
      "éĩıåŃĲ": 3986,
      "åĲĥ": 3987,
      "ä¸įæĸŃ": 3988,
      "åĪĨè£Ĥ": 3989,
      "è¾ŀ": 3990,
      "æı¡": 3991,
      "é½¡": 3992,
      "Ġæĸ°": 3993,
      "åĲ¬": 3994,
      "éĻ£": 3995,
      "å²Ń": 3996,
      "ä¿ĿèŃ·": 3997,
      "éĹľæĸ¼": 3998,
      "å¾Ħ": 3999,
      "å½ª": 4000,
      "éĤĢ": 4001,
      "éĦĤ": 4002,
      "åĴĮåħ¶ä»ĸ": 4003,
      "ä¹Łè¢«": 4004,
      "180": 4005,
      "æĺĤ": 4006,
      "æĪĺå½¹": 4007,
      "est": 4008,
      "è©¹": 4009,
      "èĢĥåı¤": 4010,
      "å¸Įçī¹": 4011,
      "æĬķç¥¨": 4012,
      "åĿĹ": 4013,
      "å¿«éĢŁ": 4014,
      "æĹ¦": 4015,
      "æĵĩ": 4016,
      "åĨħçļĦ": 4017,
      "é¦¬ä¾Ĩ": 4018,
      "éĶ®": 4019,
      "ãĤ": 4020,
      "è¾Ń": 4021,
      "å»ºæĪĲ": 4022,
      "åıĶ": 4023,
      "ä¸»ä»»": 4024,
      "è¨ĵ": 4025,
      "æĬļ": 4026,
      "äººæ°ĳæĶ¿åºľ": 4027,
      "1995": 4028,
      "åĮ»åŃ¦": 4029,
      "OS": 4030,
      "è®Ń": 4031,
      "èĩªèº«": 4032,
      "ç«ĭéĻ¶": 4033,
      "æĽ´åĬł": 4034,
      "è»Łé«Ķ": 4035,
      "çļĦç¬¬ä¸Ģ": 4036,
      "ä½Ķéłĺ": 4037,
      "66": 4038,
      "æĭ©": 4039,
      "eb": 4040,
      "äºŀæŃ·": 4041,
      "æī¿èªį": 4042,
      "éł»": 4043,
      "çļĦæĸ¹å¼ı": 4044,
      "éĽį": 4045,
      "æ¯ĶåĪ©": 4046,
      "èī¦": 4047,
      "çķ¶åľ°": 4048,
      "æĿĥåĬĽ": 4049,
      "æİ¡çĶ¨": 4050,
      "æĺ¯ä»¥": 4051,
      "ä¸īè§Ĵ": 4052,
      "1994": 4053,
      "å¤±åİ»": 4054,
      "èŃľ": 4055,
      "ä¸ľåįĹ": 4056,
      "å¤ªéĺ³": 4057,
      "åľ°åĮºçļĦ": 4058,
      "è§ĤçĤ¹": 4059,
      "æĭ¼éŁ³": 4060,
      "åģ¶åĥıåľĺé«Ķ": 4061,
      "æĸ¯å¤§æŀĹ": 4062,
      "å¤©çĦ¶": 4063,
      "æ±īè¯Ń": 4064,
      "æīįèĥ½": 4065,
      "åľĭåħ§": 4066,
      "åĮºçļĦ": 4067,
      "çĽ¸ä¼¼": 4068,
      "æ¶ħ": 4069,
      "çĸĹ": 4070,
      "ud": 4071,
      "èĢĢ": 4072,
      "å¹¿æĴŃ": 4073,
      "art": 4074,
      "é¡ŀä¼¼": 4075,
      "æĩīçĶ¨": 4076,
      "æ¼«çķ«": 4077,
      "ä¹ĭä¸Ń": 4078,
      "å¹¶åľ¨": 4079,
      "å°ĩè»į": 4080,
      "çļĦä¸Ģéĥ¨åĪĨ": 4081,
      "Ġå¤ĸéĥ¨éĢ£çµĲ": 4082,
      "'s": 4083,
      "41": 4084,
      "æĭĵ": 4085,
      "å¦¹": 4086,
      "åĪ©çĽĬ": 4087,
      "é¢ģ": 4088,
      "æĴŀ": 4089,
      "é©¬æĿ¥è¥¿äºļ": 4090,
      "ç«ĭéĻ¶å®Ľ": 4091,
      "88": 4092,
      "èļ": 4093,
      "å¤§ç´Ħ": 4094,
      "ä»¥åĲİ": 4095,
      "57": 4096,
      "ev": 4097,
      "å¯Ĵ": 4098,
      "é¡¶": 4099,
      "åº¦çļĦ": 4100,
      "è³´": 4101,
      "æĺŁçļĦ": 4102,
      "è¬Ģ": 4103,
      "ä¼ģæ¥Ń": 4104,
      "ĠâĢľ": 4105,
      "å¹¸": 4106,
      "ä¹Łä¸į": 4107,
      "æľŁçļĦ": 4108,
      "è³ĩæľ¬": 4109,
      "æıĴ": 4110,
      "å·´èµ«": 4111,
      "éŁ¦": 4112,
      "åĪ¶çļĦ": 4113,
      "æĻ¶": 4114,
      "åįģä¸ī": 4115,
      "è°ĵ": 4116,
      "è¼Ķ": 4117,
      "1950": 4118,
      "Ġ/*": 4119,
      "æĹģ": 4120,
      "è¿¹": 4121,
      "éĻ©": 4122,
      "å£®": 4123,
      "æ·¡": 4124,
      "è¬Ŀ": 4125,
      "æľĢæĹ©çļĦ": 4126,
      "çļĦå½±éŁ¿": 4127,
      "è¥¿å®ī": 4128,
      "ä¹Łåľ¨": 4129,
      "è¡¨æĺİ": 4130,
      "æĮģçºĮ": 4131,
      "æŃ¦å¸Ŀ": 4132,
      "è°ĥæŁ¥": 4133,
      "Ã©": 4134,
      "çĽ¡": 4135,
      "çĽĺ": 4136,
      "æŃ£åľ¨": 4137,
      "ä½ĵç³»": 4138,
      "åı¸æ³ķ": 4139,
      "æ¬ĬåĬĽ": 4140,
      "ç¬¬äºĮæ¬¡ä¸ĸçķĮå¤§": 4141,
      "BS": 4142,
      "ä¸Ģä½į": 4143,
      "è¨Ńç«ĭ": 4144,
      "è£½éĢł": 4145,
      "ä¹ĭä¸ĭ": 4146,
      "ç¨İ": 4147,
      "é¥°": 4148,
      "éĽĻæĸ¹": 4149,
      "éĢĬ": 4150,
      "ä¸ŃåĽ½å¤§éĻĨ": 4151,
      "éĥĬ": 4152,
      "ç¤¦": 4153,
      "çĽ¸ä¿¡": 4154,
      "pt": 4155,
      "ä¸Ńåľĭå¤§éĻ¸": 4156,
      "ãģ": 4157,
      "çļĦæĢ§": 4158,
      "æĸĩçį»": 4159,
      "æ±ł": 4160,
      "åĮĸåĲĪçī©": 4161,
      "hant": 4162,
      "ä¸Ģæł·": 4163,
      "ä¹Łåı¯ä»¥": 4164,
      "åĪ¶å®ļ": 4165,
      "æľºåħ³": 4166,
      "æ³ķæ¡Ī": 4167,
      "è¡¨æ¼Ķ": 4168,
      "çĽ¸æ¯Ķ": 4169,
      "å¡ĳ": 4170,
      "çĬ¶æĢģ": 4171,
      "èĥĮæĻ¯": 4172,
      "æ®ĸæ°ĳåľ°": 4173,
      "æµ·è»į": 4174,
      "åĿı": 4175,
      "èĭ±è¯Ń": 4176,
      "çŁ¥éģĵ": 4177,
      "è®°å½ķ": 4178,
      "æķ´ä¸ª": 4179,
      "æĺ¾ç¤º": 4180,
      "Ġfor": 4181,
      ")(": 4182,
      "ç´§": 4183,
      "åĪĨæĶ¯": 4184,
      "åİŁä½ı": 4185,
      "æĶ¿åºľçļĦ": 4186,
      "æ³¢èĺŃ": 4187,
      "èĲ¬äºº": 4188,
      "çı¾è±¡": 4189,
      "å¤§éĿ©åĳ½": 4190,
      "æĸ¯çļĦ": 4191,
      "æľĿå»·": 4192,
      "æĿ¡ä»¶": 4193,
      "åįļçī©é¤¨": 4194,
      "åį¿": 4195,
      "åĲįçĤº": 4196,
      "çİ°è±¡": 4197,
      "å£«åħµ": 4198,
      "éľ¸": 4199,
      "1992": 4200,
      "iversity": 4201,
      "å®ĥåĢĳ": 4202,
      "éĴŁ": 4203,
      "ç¶ŃåŁº": 4204,
      "ĠAn": 4205,
      "èµ´": 4206,
      "å¾ĮçļĦ": 4207,
      "ç¥Ŀ": 4208,
      "æ¼Ķå¥ı": 4209,
      "ä¸»è¦ģæĺ¯": 4210,
      "å»ºç«ĭäºĨ": 4211,
      "éĿ¢çļĦ": 4212,
      "å¤§åŀĭ": 4213,
      "å¥³æŃĮæīĭ": 4214,
      "ä¸Ńæľī": 4215,
      "å·§": 4216,
      "ä¸īåįģ": 4217,
      "èİĬ": 4218,
      "åľĭæ°ĳé»¨": 4219,
      "Ġ*/": 4220,
      "ä¹Ļ": 4221,
      "å¼ĥ": 4222,
      "åĳĤ": 4223,
      "1970": 4224,
      "æľīéĻĲåħ¬åı¸": 4225,
      "åĨĮ": 4226,
      "çĽ¾": 4227,
      "åŁĶ": 4228,
      "åŃ¸ç¿Ĵ": 4229,
      "æ±½è½¦": 4230,
      "ä¾§": 4231,
      "æŃ¤åĲİ": 4232,
      "æ£Ħ": 4233,
      "ory": 4234,
      "å®¹æĺĵ": 4235,
      "åŃĶåŃĲ": 4236,
      "å¤ļä¸ª": 4237,
      "æ¼ĶåĮĸ": 4238,
      "ary": 4239,
      "æ£®æŀĹ": 4240,
      "èª¿æŁ¥": 4241,
      "éĿ¢ç©į": 4242,
      "æĮĩæı®": 4243,
      "éĢīæĭ©": 4244,
      "åŁ·è¡Į": 4245,
      "æķĮ": 4246,
      "æĬķéĻį": 4247,
      "çļĦåĽ½å®¶": 4248,
      "åĦĺ": 4249,
      "å¦»åŃĲ": 4250,
      "çĻ¼æĺİ": 4251,
      "è³ªéĩı": 4252,
      "æ¾³æ´²": 4253,
      "å¤§å¤ļæķ¸": 4254,
      "çļĦåıĳå±ķ": 4255,
      "æľ´": 4256,
      "å¾Īå¤§": 4257,
      "ĠISBN": 4258,
      "çİ©": 4259,
      "çº¸": 4260,
      "æĸ¼æĺ¯": 4261,
      "æŁ±": 4262,
      "æįŁ": 4263,
      "ich": 4264,
      "åªĴä½ĵ": 4265,
      "51": 4266,
      "ib": 4267,
      "ĠåĮĹ": 4268,
      "å§Ĳ": 4269,
      "åıĳæĺİ": 4270,
      "å£ŀ": 4271,
      "åħģè®¸": 4272,
      "è¡Ŀçªģ": 4273,
      "ux": 4274,
      "éģĵè·¯": 4275,
      "(,": 4276,
      "54": 4277,
      "æĪĴ": 4278,
      "çķ¢": 4279,
      "æµ·æ´ĭ": 4280,
      "çĽ¸å½ĵ": 4281,
      "ff": 4282,
      "å¬": 4283,
      "åıĳå°Ħ": 4284,
      "èµ·ä¹ī": 4285,
      "æķ¸åŃ¸": 4286,
      "è¦ıå®ļ": 4287,
      "åĳ¨æģ©æĿ¥": 4288,
      "è¯ī": 4289,
      "æĮģç»Ń": 4290,
      "53": 4291,
      "ç¥Ģ": 4292,
      "è£ı": 4293,
      "æĶ¿æ²»å®¶": 4294,
      "å°ĳå¹´": 4295,
      "éŁĵåľĭçĶ·åŃĲ": 4296,
      "74": 4297,
      "éłĺåľŁ": 4298,
      "å´©": 4299,
      "ç¼ºä¹ı": 4300,
      "ä¼Ĭæĸ¯åħ°": 4301,
      "é´": 4302,
      "ç´Ķ": 4303,
      "èĢĮä¸į": 4304,
      "å£½": 4305,
      "éĺħ": 4306,
      "éĸĭæĶ¾": 4307,
      "1991": 4308,
      "æĿĥåĪ©": 4309,
      "ĠY": 4310,
      "æĹ¨": 4311,
      "ç¨ħ": 4312,
      "åİŁçĲĨ": 4313,
      "æģ¶": 4314,
      "è®®ä¼ļ": 4315,
      "=\"": 4316,
      "çļĦä½ľåĵģ": 4317,
      "ä»¿": 4318,
      "ä¸Ģåº¦": 4319,
      "åİŁæľ¬": 4320,
      "å·´è¥¿": 4321,
      "äº§åĵģ": 4322,
      "Ġ0": 4323,
      "æ±¤": 4324,
      "ç¸®": 4325,
      "èı²å¾ĭ": 4326,
      "åĲ¸å¼ķ": 4327,
      "ä¸Ŀ": 4328,
      "åľ¨åħ¶": 4329,
      "éłĴ": 4330,
      "éĢĻä¸Ģ": 4331,
      "åĨħèĴĻåı¤": 4332,
      "æĶ¯æı´": 4333,
      "äº¦æľī": 4334,
      "ä¸Ģèĩ´": 4335,
      "çŃĨ": 4336,
      "è¡¨è¾¾": 4337,
      "æıļ": 4338,
      "èŃ½": 4339,
      "æĹłéĶ¡": 4340,
      "ĠåİĨåı²": 4341,
      "äººåĴĮ": 4342,
      "äººåĢĳ": 4343,
      "å¾·æĦıå¿Ĺ": 4344,
      "æķ°éĩı": 4345,
      "åĽŀåĪ°": 4346,
      "çĺ": 4347,
      "çļĦä¸ī": 4348,
      "èµĦæĸĻ": 4349,
      "å¥³åŃĲåľĺé«Ķ": 4350,
      "61": 4351,
      "æ¢¦": 4352,
      "ä»Ĭå¤©": 4353,
      "Ġ2003": 4354,
      "ä¸Ńåįİæ°ĳåĽ½": 4355,
      "ç»¿": 4356,
      "æµ·å¤ĸ": 4357,
      "è³¼": 4358,
      "ä¿®æŃ£": 4359,
      "çľŁæŃ£": 4360,
      "ç´¯": 4361,
      "æĶ¹åıĺ": 4362,
      "è§£åĨ³": 4363,
      "æī¿è®¤": 4364,
      "çĮ¶å¤ª": 4365,
      "åĽ½æĹĹ": 4366,
      "è¥¿æ´ĭ": 4367,
      "èĹ¤": 4368,
      "ä¿Ŀå®Ī": 4369,
      "å½ĵåľ°": 4370,
      "åħĪåĲİ": 4371,
      "ord": 4372,
      "èĵĿ": 4373,
      "72": 4374,
      "çŁ¥èŃĺ": 4375,
      "æĤī": 4376,
      "our": 4377,
      "æģĭ": 4378,
      "52": 4379,
      "éĢ»": 4380,
      "é¡§": 4381,
      "çİĭåĽ½": 4382,
      "ç»ĵåĲĪ": 4383,
      "è®¿éĹ®": 4384,
      "ci": 4385,
      "è¯¾": 4386,
      "å©¦": 4387,
      "éĭ¼": 4388,
      "Ġä¸Ńåįİäººæ°ĳåħ±åĴĮåĽ½": 4389,
      "åĲŀ": 4390,
      "è¥¿åĵ¥": 4391,
      "åįľ": 4392,
      "æ³ķçļĦ": 4393,
      "å»ł": 4394,
      "é¡Ĩ": 4395,
      "åıįæĩī": 4396,
      "å¹´åºķ": 4397,
      "å¯¬": 4398,
      "åĢ¡": 4399,
      "å£ģ": 4400,
      "åħĥæľĿ": 4401,
      "åħ§çļĦ": 4402,
      "åĪĽä½ľ": 4403,
      "æĻĵ": 4404,
      "è¢«ç¨±çĤº": 4405,
      "åį³ä½į": 4406,
      "éĮ¯": 4407,
      "è¡į": 4408,
      "çļĦäºĭ": 4409,
      "è¢«è¿«": 4410,
      "ä¸¾åĬŀ": 4411,
      "ç¿»èŃ¯": 4412,
      "å¸Įçī¹åĭĴ": 4413,
      "åĦĺç®¡": 4414,
      "çļĦæĪĲ": 4415,
      "å¹´éĸĵ": 4416,
      "ä¸īä¸ĸ": 4417,
      "åĽĽå¤§": 4418,
      "ä¾ĭåŃĲ": 4419,
      "åľĸæĽ¸": 4420,
      "æĪªèĩ³": 4421,
      "ie": 4422,
      "ok": 4423,
      "ä¸ĢåĪĩ": 4424,
      "æĮĳ": 4425,
      "æħ§": 4426,
      "è·ĿéĽ¢": 4427,
      "Ġde": 4428,
      "åĨ¯": 4429,
      "åįģåħ«": 4430,
      "éĢĻæ¨£": 4431,
      "éŃļ": 4432,
      "Ġ1990": 4433,
      "éĨ«åŃ¸": 4434,
      "Ġon": 4435,
      "çļĦæĸ¹æ³ķ": 4436,
      "æŀĹå½ª": 4437,
      "èĮĤ": 4438,
      "æĦŁæŁĵ": 4439,
      "åįıè®®": 4440,
      "79": 4441,
      "æŃ§": 4442,
      "æĽ´å¤ļ": 4443,
      "ä¿±": 4444,
      "å¸ĤåĮº": 4445,
      "åŁºäºİ": 4446,
      "çĶ¢åĵģ": 4447,
      "çĸı": 4448,
      "è§ĦåĪĴ": 4449,
      "åĩłä¹İ": 4450,
      "ä¸ĭä»¤": 4451,
      "1960": 4452,
      "åĽ½å®¶çļĦ": 4453,
      "ä¸Ģæ¨£": 4454,
      "çĶ¨æĪ·": 4455,
      "è£ķ": 4456,
      "1996": 4457,
      "æī¹è¯Ħ": 4458,
      "Ġèĩª": 4459,
      "çµ²": 4460,
      "1993": 4461,
      "Ġ2022": 4462,
      "å¼ķçĶ¨": 4463,
      "å»£æ³Ľ": 4464,
      "å¤ªåĲİ": 4465,
      "çµ±è¨Ī": 4466,
      "æ³¢æĸ¯": 4467,
      "éı¡": 4468,
      "å®ı": 4469,
      "èĢķ": 4470,
      "Ġ1980": 4471,
      "âĢĻ": 4472,
      "åįģä¹Ŀ": 4473,
      "æ»ĭ": 4474,
      "çķ¶ä¸Ń": 4475,
      "Ġto": 4476,
      "æĭ¿çł´": 4477,
      "çļĦåľĭå®¶": 4478,
      "çĶ¸": 4479,
      "èĬĿ": 4480,
      "æ±ŁåįĹ": 4481,
      "Ġä¸ī": 4482,
      "åľĭæľĥ": 4483,
      "ç¬¬ä¸ĥ": 4484,
      "é©±": 4485,
      "éĤ£äºĽ": 4486,
      "æµ®": 4487,
      "æŃĮæĽ²": 4488,
      "æ°ĳä¸»é»¨": 4489,
      "åŁİåĮº": 4490,
      "å¤ıåŃ£": 4491,
      "å¢¨è¥¿åĵ¥": 4492,
      "åİħ": 4493,
      "è¨»": 4494,
      "é«ĺåº¦": 4495,
      "åĲĪå¹¶": 4496,
      "ç¶ŃæĮģ": 4497,
      "73": 4498,
      "89": 4499,
      "Ġä¸Ńåľĭ": 4500,
      "åĪĨé¡ŀ": 4501,
      "çĽ´èĩ³": 4502,
      "æĽ¾ç¶ĵ": 4503,
      "ç´ĢéĮĦ": 4504,
      "æīĢæľīçļĦ": 4505,
      "ĠæĹ¥æľ¬": 4506,
      "ä¹Łå°±æĺ¯": 4507,
      "èĭ±éĽĦ": 4508,
      "æ¯Ķäºļ": 4509,
      "æ¯Ģ": 4510,
      "ç¬Ķ": 4511,
      "èĿ": 4512,
      "Ġåħ¶ä»ĸ": 4513,
      "åĽ½ä¼ļ": 4514,
      "èĭĹ": 4515,
      "åĲįç¨±": 4516,
      "å¯Ĩåº¦": 4517,
      "æ»¿æ´²": 4518,
      "éģĹåĿĢ": 4519,
      "èŁ": 4520,
      "æŃĮåĬĩ": 4521,
      "èį·åħ°": 4522,
      "Ġ{": 4523,
      "æ½ĺ": 4524,
      "æ³¨æĦı": 4525,
      "ç¡®å®ļ": 4526,
      "åģ¥åº·": 4527,
      "ĠX": 4528,
      "çŁĽ": 4529,
      "å®īå¾½": 4530,
      "çĬ¬": 4531,
      "èĩªæ²»åĮº": 4532,
      "åĲĮæĢ§æĪĢ": 4533,
      "71": 4534,
      "çļĦåľ°æĸ¹": 4535,
      "åı²ä¸Ĭ": 4536,
      "æ©Łåł´": 4537,
      "olog": 4538,
      "å°ĳæķ°æ°ĳæĹı": 4539,
      "Ġst": 4540,
      "å°ĭ": 4541,
      "äººå·¥": 4542,
      "ä»¥å¾Į": 4543,
      "åīĳ": 4544,
      "æ°ĳéĸĵ": 4545,
      "ç´¹": 4546,
      "çĭĦ": 4547,
      "è¿ĺæĺ¯": 4548,
      "æ¾³å¤§åĪ©": 4549,
      "ç¶²è·¯": 4550,
      "æª¢": 4551,
      "æľĭ": 4552,
      "å»ºéĢł": 4553,
      "ç·Ĭ": 4554,
      "äººåı£ä¸º": 4555,
      "æİ¨è¡Į": 4556,
      "rom": 4557,
      "éĻ¸è»į": 4558,
      "çĹĽ": 4559,
      "åıĸæ¶Ī": 4560,
      "æİ¨åĩº": 4561,
      "å°¼åħĭæĿ¾": 4562,
      "åĨĽå§Ķ": 4563,
      "åĽ¾ä¹¦": 4564,
      "è®¨è®º": 4565,
      "Ġç¾İåľĭ": 4566,
      "äººåĵ¡": 4567,
      "æ°«": 4568,
      "éĻķ": 4569,
      "ç´Ľ": 4570,
      "çī¹å®ļ": 4571,
      "åĥ§": 4572,
      "åªĴé«Ķ": 4573,
      "96": 4574,
      "åĤ¾": 4575,
      "çĽ®æłĩ": 4576,
      "å¯Įæ±Ĺ": 4577,
      "çļĦä¸Ń": 4578,
      "ä¼Ł": 4579,
      "ä¿Ĭ": 4580,
      "èµ·æĿ¥": 4581,
      "å®ŀæĸ½": 4582,
      "æĻ®æŁ¥": 4583,
      "çĬ¹å¤ªäºº": 4584,
      "åŃ©åŃĲ": 4585,
      "å¤§çº¦": 4586,
      "èħĲ": 4587,
      "çĪŃèŃ°": 4588,
      "ä¸Ńåħ±ä¸Ńå¤®æĶ¿æ²»å±Ģ": 4589,
      "åľ¨ä¸ŃåĽ½": 4590,
      "æİī": 4591,
      "è¿Ľä¸ĢæŃ¥": 4592,
      "æħ°": 4593,
      "ä»»æľŁ": 4594,
      "ä¸¦åľ¨": 4595,
      "æĶ¹ä¸º": 4596,
      "çĳľ": 4597,
      "per": 4598,
      "æľĪåĪĿ": 4599,
      "å»ºè®®": 4600,
      "æ±Łèĭı": 4601,
      "å°ĳæķ¸": 4602,
      "å¹¿è¥¿": 4603,
      "ç»ĥ": 4604,
      "æķĻåłĤ": 4605,
      "æµ·åĨĽ": 4606,
      "è²Į": 4607,
      "æĪ°å½¹": 4608,
      "Ġ1982": 4609,
      "è§Ģå¯Ł": 4610,
      "åĮ»éĻ¢": 4611,
      "und": 4612,
      "æİªæĸ½": 4613,
      "æıĲçĲ´": 4614,
      "éĢĨ": 4615,
      "åīĽ": 4616,
      "æł¡åıĭ": 4617,
      "éģĶåĪ°": 4618,
      "ree": 4619,
      "å¥ł": 4620,
      "éĤ»": 4621,
      "éĶ¦": 4622,
      "éģ¸æĵĩ": 4623,
      "æĬĹæĹ¥": 4624,
      "åĭ¢åĬĽ": 4625,
      "ĠçĶŁ": 4626,
      "åĪĨç±»": 4627,
      "åĪĨéħį": 4628,
      "æĹıçļĦ": 4629,
      "åıĥåĬł": 4630,
      "åĥ¹åĢ¼": 4631,
      "çĽ¤": 4632,
      "çĪĨçĤ¸": 4633,
      "éĺ¶æ®µ": 4634,
      "èª²": 4635,
      "é¦ĸåħĪ": 4636,
      "æŃ¦è£ħ": 4637,
      "åħ¬éĸĭ": 4638,
      "åħ¬åľĴ": 4639,
      "è³¢": 4640,
      "åħĥå¸": 4641,
      "å¹¾ä¹İ": 4642,
      "åĵĪå°Ķæ»¨": 4643,
      "æĺ¯ä¸ĢåĢĭ": 4644,
      "ä¸įè¶³": 4645,
      "æ¼Ķåĳĺ": 4646,
      "ç±»åŀĭ": 4647,
      "DP": 4648,
      "åĲ¨": 4649,
      "åĩºä»»": 4650,
      "èģ²åĦª": 4651,
      "å¸¸å§Ķä¼ļ": 4652,
      "300": 4653,
      "çĶ±æŃ¤": 4654,
      "çī¹çļĦ": 4655,
      "å¤ªå®Ĺ": 4656,
      "æ²¿æµ·": 4657,
      "éĤĵå°ıå¹³": 4658,
      "äºŀæŃ·å±±å¤§": 4659,
      "çº¯": 4660,
      "åĲĮä¸Ģ": 4661,
      "æ¨ª": 4662,
      "èĤĥ": 4663,
      "è³ĩæºĲ": 4664,
      "è§Ģé»ŀ": 4665,
      "ive": 4666,
      "åĭĭ": 4667,
      "åŃ¸è¡ĵ": 4668,
      "è¥¿å¤ı": 4669,
      "æľĢå¤ļ": 4670,
      "çģ°": 4671,
      "ign": 4672,
      "æīĭæ®µ": 4673,
      "æĵĬæķĹ": 4674,
      "çĻ¼è¡Į": 4675,
      "æ®·": 4676,
      "1989": 4677,
      "ä¸ĵä¸ļ": 4678,
      "æµ·æĭĶ": 4679,
      "åįģäºĶ": 4680,
      "åħĥéŁ³": 4681,
      "ack": 4682,
      "ç©Ĩæĸ¯": 4683,
      "å°¤åħ¶æĺ¯": 4684,
      "ä»¥ä¸ĬçļĦ": 4685,
      "ä¾į": 4686,
      "å»Ł": 4687,
      "ç¶ĵå¸¸": 4688,
      "çĥŁ": 4689,
      "å®£ä½Ī": 4690,
      "é»Ħæ²³": 4691,
      "ç²ĴåŃĲ": 4692,
      "å¤¢": 4693,
      "èĪ°": 4694,
      "åħ¶å¾Į": 4695,
      "èĲ¨åħĭ": 4696,
      "è¾²æ¥Ń": 4697,
      "å¹«": 4698,
      "éķ¿æľŁ": 4699,
      "æĩīè©²": 4700,
      "æ¶Īæģ¯": 4701,
      "ä¸ľéĥ¨": 4702,
      "inux": 4703,
      "å®ĭæľĿ": 4704,
      "Ġ2000": 4705,
      "æĤ²": 4706,
      "ä¸°å¯Į": 4707,
      "85": 4708,
      "è¾°": 4709,
      "èŃ°åĵ¡": 4710,
      "å¾ģæľį": 4711,
      "å°ī": 4712,
      "åĨĬ": 4713,
      "è©³": 4714,
      "è¿ŀæİ¥": 4715,
      "86": 4716,
      "çļĦå°ı": 4717,
      "æĸĩéĿ©": 4718,
      "äºĭåĭĻ": 4719,
      "éģĵæķĻ": 4720,
      "ä¸ĥå¹´": 4721,
      "è§Ģæ¸¬": 4722,
      "çįİå¾Ĺä¸»": 4723,
      "åĬ³åĬ¨": 4724,
      "èĢĮä¸įæĺ¯": 4725,
      "åĲĮå¿Ĺ": 4726,
      "è²·": 4727,
      "çħ¤": 4728,
      "è¯ģæĺİ": 4729,
      "éĢ»è¾ĳ": 4730,
      "Ġé«ĺ": 4731,
      "åŃ¤": 4732,
      "éģ¼": 4733,
      "è§£æ±º": 4734,
      "æİ¨ç¿»": 4735,
      "äºĴçĽ¸": 4736,
      "åĨ²çªģ": 4737,
      "åĩıå°ĳ": 4738,
      "å±¯": 4739,
      "åıĳè¾¾": 4740,
      "åį³ä½¿": 4741,
      "åµ": 4742,
      "çĶŁçļĦ": 4743,
      "çº·": 4744,
      "å°ıçļĦ": 4745,
      "æİ¥è§": 4746,
      "åľ¨åĮĹäº¬": 4747,
      "æ³¥": 4748,
      "æĹıç¾¤": 4749,
      "æł¼çļĦ": 4750,
      "ç»§æī¿": 4751,
      "çłĶç©¶æīĢ": 4752,
      "çĭĹ": 4753,
      "æ¬ĬåĪ©": 4754,
      "è¨Īçķ«": 4755,
      "âĢĺ": 4756,
      "ä¸įæľĥ": 4757,
      "åĲįåŃĹ": 4758,
      "çĦ¦": 4759,
      "éĢļçĶ¨": 4760,
      "è¿ĳå¹´": 4761,
      "Ġ1989": 4762,
      "åł±åĳĬ": 4763,
      "å¤ļå¹´": 4764,
      "Ġ2006": 4765,
      "æ³ķèĺŃ": 4766,
      "æľ¬åľŁ": 4767,
      "è´¾": 4768,
      "å°ıæĹ¶": 4769,
      "é«ĺéĢŁåħ¬è·¯": 4770,
      "åĸ¬æ²»": 4771,
      "åĪļ": 4772,
      "åĭ¤": 4773,
      "éĺ¿å¯Įæ±Ĺ": 4774,
      "æĲį": 4775,
      "æ¶īåıĬ": 4776,
      "é¡į": 4777,
      "è¡¨çİ°": 4778,
      "Ġ1991": 4779,
      "Ġ2005": 4780,
      "å°Ķå¾·": 4781,
      "ang": 4782,
      "ç©ºéĸĵ": 4783,
      "Ġ2021": 4784,
      "èĥľåĪ©": 4785,
      "ä¸ĢåĲį": 4786,
      "åīĬ": 4787,
      "çĲĨæĥ³": 4788,
      "ork": 4789,
      "çĪ¶è¦ª": 4790,
      "å¹¹": 4791,
      "é«ĺåİŁ": 4792,
      "æľªèĥ½": 4793,
      "çĵľ": 4794,
      "æıĲåĩºäºĨ": 4795,
      "æĺ¯ä¸Ģç¨®": 4796,
      "æľĪçļĦ": 4797,
      "å¸ĥä»Ģ": 4798,
      "èĭıå·ŀ": 4799,
      "ä¾ĿçĦ¶": 4800,
      "å¤įæĿĤ": 4801,
      "ĠUniversity": 4802,
      "Ġ14": 4803,
      "åī©": 4804,
      "æŀ¢": 4805,
      "åħ¬å¸ĥ": 4806,
      "ç¶ł": 4807,
      "äº¤æĺĵ": 4808,
      "man": 4809,
      "åĪ·": 4810,
      "å¹³çŃī": 4811,
      "å¦Ĥä¸ĭ": 4812,
      "Ġ1993": 4813,
      "æ´Ľåħĭ": 4814,
      "ĠWindows": 4815,
      "ç§ĺå¯Ĩ": 4816,
      "èµĸ": 4817,
      "çļĦæĶ¯æĮģ": 4818,
      "æķĻå®Ĺ": 4819,
      "å¦®": 4820,
      "åħ¨çľģ": 4821,
      "åĬĽåŃ¦": 4822,
      "åķĨäºº": 4823,
      "åį¡å°Ķ": 4824,
      "é¤Ĳ": 4825,
      "æī¹åĪ¤": 4826,
      "è³ĩè¨Ĭ": 4827,
      "è¯Ħä»·": 4828,
      ":ãĢĪ": 4829,
      "æī®": 4830,
      "éķľ": 4831,
      "éĤĳ": 4832,
      "å¡ĺ": 4833,
      "ical": 4834,
      "éľĢæ±Ĥ": 4835,
      "è¿Ľè¡ĮäºĨ": 4836,
      "ç¬¦åı·": 4837,
      "éµ": 4838,
      "ä¸įæĸ·": 4839,
      "è´Ń": 4840,
      "åħĭæŀĹ": 4841,
      "å¢Ļ": 4842,
      "æ¡£": 4843,
      "æĺŁæľŁ": 4844,
      "æ¼¢èªŀ": 4845,
      "è®¤ä¸ºæĺ¯": 4846,
      "ä¸Ĭå¸Ŀ": 4847,
      "è¨´": 4848,
      "æĸ°èģŀ": 4849,
      "æ©«": 4850,
      "çĪ¶äº²": 4851,
      "ass": 4852,
      "äºĳåįĹ": 4853,
      "æ¼ł": 4854,
      "å¦ĩ": 4855,
      "ä¿ĦåĽ½": 4856,
      "Ġre": 4857,
      "éĺģ": 4858,
      "éĤ®": 4859,
      "Ġ1988": 4860,
      "Ġ1997": 4861,
      "åľ°åįĢçļĦ": 4862,
      "ç¬¦åĲĪ": 4863,
      "ip": 4864,
      "å¹´åº¦": 4865,
      "è¡¨çı¾": 4866,
      "é©ħ": 4867,
      "æĺ¯ä¸Ģç§į": 4868,
      "æĥħåĨµä¸ĭ": 4869,
      "63": 4870,
      "ne": 4871,
      "å¹´è¢«": 4872,
      "å°ĸ": 4873,
      "å¯¦è¡Į": 4874,
      "æ¹ĸåĮĹ": 4875,
      "äº¨åĪ©": 4876,
      "ä¸Ģå¸¦": 4877,
      "äºĨè§£": 4878,
      "åİ¥": 4879,
      "è¥¿æĸ¯": 4880,
      "1988": 4881,
      "Ġä¸ĸçķĮ": 4882,
      "åĲįçļĦ": 4883,
      "æº¯": 4884,
      "äººæ°ĳä»£è¡¨å¤§ä¼ļ": 4885,
      "åı¸é¦¬": 4886,
      "ç¾¤å³¶": 4887,
      "ç¯ĢçĽ®": 4888,
      "åıĮæĸ¹": 4889,
      "èŃ¦å¯Ł": 4890,
      "äºŃ": 4891,
      "ä¸ŃåŃĲ": 4892,
      "éĿĻ": 4893,
      "åĲįç§°": 4894,
      "æŃ£å¸¸": 4895,
      "ant": 4896,
      "ç¬¬ä¸ĢåĢĭ": 4897,
      "çļĦä¸ĢäºĽ": 4898,
      "Ġ2004": 4899,
      "æķ´åĢĭ": 4900,
      "çļĦå¤ĸ": 4901,
      "å¤ļæķ¸": 4902,
      "è±Ĩ": 4903,
      "Ġ1984": 4904,
      "æ¦ľ": 4905,
      "æĲľ": 4906,
      "è»Įéģĵ": 4907,
      "Ġéĩĳ": 4908,
      "Ġ13": 4909,
      "ä¸²": 4910,
      "åħĭèĺŃ": 4911,
      "å®ĺåĵ¡": 4912,
      "ä¸Ńå¤®å§Ķåĳĺä¼ļ": 4913,
      "æºĲèĩª": 4914,
      "é¢ĨåľŁ": 4915,
      "èĪīè¾¦": 4916,
      "DNA": 4917,
      "æľŃ": 4918,
      "æķ°åŃĹ": 4919,
      "å¼ķåĬĽ": 4920,
      "ĠEn": 4921,
      "å¤ªå¹³æ´ĭ": 4922,
      "éĸ±": 4923,
      "åģ´": 4924,
      "è¿ĽæĶ»": 4925,
      "ä»İèĢĮ": 4926,
      "II": 4927,
      "ä¹ĭåŃĲ": 4928,
      "æĬ½": 4929,
      "Ġ1983": 4930,
      "®é£Ł": 4931,
      "è¿Ī": 4932,
      "çĽĨ": 4933,
      "ä»£çļĦ": 4934,
      "æıĲåįĩ": 4935,
      "é£ŀè¡Į": 4936,
      "ä¸Ńéĥ¨": 4937,
      "å¤ļèĬ¬": 4938,
      "ç¬¬åħ«": 4939,
      "åĲĪæ³ķ": 4940,
      "åįģåĽĽ": 4941,
      "å®£è¨Ģ": 4942,
      "å¤§è§Ħæ¨¡": 4943,
      "æµ©": 4944,
      "ec": 4945,
      "çĶ«": 4946,
      "å¯¿": 4947,
      "int": 4948,
      "è¯ŀ": 4949,
      "ç´Ļ": 4950,
      "åĬĽåŃ¸": 4951,
      "ä¿Ŀéļľ": 4952,
      "äºīè®®": 4953,
      "æĻºèĥ½": 4954,
      "èĨľ": 4955,
      "çĽĲ": 4956,
      "ä¸īåĢĭ": 4957,
      "æ¹¯": 4958,
      "å»£å·ŀ": 4959,
      "1978": 4960,
      "çĭĢæħĭ": 4961,
      "åĿĬ": 4962,
      "æ±Łè¥¿": 4963,
      "Ġ1992": 4964,
      "ry": 4965,
      "éļ¸": 4966,
      "çĪ¾æĸ¯": 4967,
      "å§ĭçļĩ": 4968,
      "å½¢è±¡": 4969,
      "äº§éĺ¶çº§": 4970,
      "é³¥": 4971,
      "åľĭç«ĭ": 4972,
      "èŃ°éĻ¢": 4973,
      "Ġ1986": 4974,
      "æłĩå¿Ĺ": 4975,
      "St": 4976,
      "æĹ¥çļĦ": 4977,
      "éĹ½": 4978,
      "åĪ°çļĦ": 4979,
      "åįĹå®ĭ": 4980,
      "éģİåİ»": 4981,
      "åĢ«æķ¦": 4982,
      "èŀįåĲĪ": 4983,
      "->": 4984,
      "éģķ": 4985,
      "æĿī": 4986,
      "ç¿»è¯ĳ": 4987,
      "éģºçĶ¢": 4988,
      "åĩĮ": 4989,
      "è¼Ŀ": 4990,
      "æ¶µ": 4991,
      "çī©çĲĨåŃ¸": 4992,
      "è¨İè«ĸ": 4993,
      "æ¯ħ": 4994,
      "èĻĽ": 4995,
      "éħ¶": 4996,
      "æĭĴç»Ŀ": 4997,
      "çŁĽçĽ¾": 4998,
      "åºĬ": 4999,
      "ä¹ĭæĪ°": 5000,
      "åģī": 5001,
      "éĻįä½İ": 5002,
      "å¤§éĩıçļĦ": 5003,
      "æ°ĳçľ¾": 5004,
      "å¸ĤçļĦ": 5005,
      "æĪĺçķ¥": 5006,
      "æ¸ħåįİ": 5007,
      "èı¯äºº": 5008,
      "æ³¢ç½Ĺ": 5009,
      "Ġ1981": 5010,
      "åĬŀåħ¬": 5011,
      "92": 5012,
      "éĻĢ": 5013,
      "å¾·çļĦ": 5014,
      "éĩįå»º": 5015,
      "ç§ĳåŃ¸å®¶": 5016,
      "æĽ¾ç»ı": 5017,
      "Ġ1994": 5018,
      "èĸĦ": 5019,
      "åįıåķĨ": 5020,
      "çļĦçĻ¼å±ķ": 5021,
      "èĢĹ": 5022,
      "å»ºèŃ°": 5023,
      "éķ¿æĺ¥": 5024,
      "é¦ĸä½į": 5025,
      "æķ¸éĩı": 5026,
      "åĨįåº¦": 5027,
      "Ġ1949": 5028,
      "éļ¨å¾Į": 5029,
      "é¼İ": 5030,
      "ç¹¼æī¿": 5031,
      "é¬¼": 5032,
      "ç¶ŃåŁºçĻ¾ç§ĳ": 5033,
      "ä¸ŃæľŁ": 5034,
      "æķ¢": 5035,
      "å¤ļç§į": 5036,
      "å°ĶåĵĪ": 5037,
      "æº¶": 5038,
      "ä¾ĨæºĲ": 5039,
      "åĲĦèĩª": 5040,
      "å¾Īå¿«": 5041,
      "æĶ¿åįı": 5042,
      "è§Ī": 5043,
      "è³¦": 5044,
      "æģŃ": 5045,
      "æĶ¹åĸĦ": 5046,
      "æĿ±åįĹ": 5047,
      "éĽĨåľĺ": 5048,
      "æ¢Ŀä»¶": 5049,
      "æİĮæı¡": 5050,
      "ext": 5051,
      "ä¸»å¼ł": 5052,
      "èģĮä¸ļ": 5053,
      "ies": 5054,
      "åĲĮæ¨£": 5055,
      "ä¸īåľĭ": 5056,
      "ä¸ľè¥¿": 5057,
      "çĶ¢æ¥Ń": 5058,
      "82": 5059,
      "ç»ĺ": 5060,
      "èģĤ": 5061,
      "éĹŃ": 5062,
      "ä¸īå¤§": 5063,
      "å°Ķæĸ¯": 5064,
      "åıįæĺł": 5065,
      "ä¿ĿåŃĺ": 5066,
      "å®ĺåĳĺ": 5067,
      "Ġ2010": 5068,
      "1979": 5069,
      "åįłæĢ»äººåı£çļĦ": 5070,
      "87": 5071,
      "Ġ2007": 5072,
      "æİĪäºĪ": 5073,
      "ak": 5074,
      "éĩĳå±¬": 5075,
      "çĦ¶åĲİ": 5076,
      "è¯ŃçļĦ": 5077,
      "1987": 5078,
      "æŃ·åı²ä¸Ĭ": 5079,
      "å¹´è«¾è²ĿçĪ¾": 5080,
      "ç±ĥ": 5081,
      "æĭīå¤«": 5082,
      "ice": 5083,
      "se": 5084,
      "æĹ¥èĩ³": 5085,
      "ç¨Ģ": 5086,
      "æµ·å²¸": 5087,
      "å°¼æĸ¯": 5088,
      "éĬħ": 5089,
      "åĬ¿åĬĽ": 5090,
      "ç¨³å®ļ": 5091,
      "ial": 5092,
      "æĢĴ": 5093,
      "æĻĤåĢĻ": 5094,
      "åĪ¶ä½ľ": 5095,
      "åİŁåĪĻ": 5096,
      "çµĲåĲĪ": 5097,
      "ç½ĳç«Ļ": 5098,
      "ç¢ºå®ļ": 5099,
      "ç®Ģåįķ": 5100,
      "ä¹Ķæ²»": 5101,
      "åĩºå¸Ń": 5102,
      "æĮª": 5103,
      "çĥ§": 5104,
      "è®¾ç½®": 5105,
      "çļĦä¸ĢåĢĭ": 5106,
      "1982": 5107,
      "Ġ1995": 5108,
      "è³£": 5109,
      "å½ĵéĢī": 5110,
      "äººåı£æĻ®æŁ¥": 5111,
      "è¿Ĳè¡Į": 5112,
      "è©©äºº": 5113,
      "æ¯ķä¸ļ": 5114,
      "é¦¬ä¾Ĩè¥¿äºŀ": 5115,
      "éĥ¨éĹ¨": 5116,
      "éĢ²æĶ»": 5117,
      "å¤Ħäºİ": 5118,
      "97": 5119,
      "ISBN": 5120,
      "è¾¨": 5121,
      "150": 5122,
      "ä¹¦éĻ¢": 5123,
      "ate": 5124,
      "Ġ1987": 5125,
      "ç§ĳåŃ¦å®¶": 5126,
      "åĨ¬åŃ£": 5127,
      "åīįçļĦ": 5128,
      "å±ķéĸĭ": 5129,
      "çªģåİ¥": 5130,
      "éĢĲæŃ¥": 5131,
      "91": 5132,
      "æ¡ĥ": 5133,
      "1956": 5134,
      "æĦŁåĪ°": 5135,
      "çŃ¾ç½²": 5136,
      "93": 5137,
      "ä¹³": 5138,
      "1930": 5139,
      "ä»£çłģ": 5140,
      "åħĭéĩĮ": 5141,
      "éĥ½æľĥ": 5142,
      "ç»ıå¸¸": 5143,
      "é«ĶèĤ²": 5144,
      "èįĨ": 5145,
      "omp": 5146,
      "ç´Ĳç´Ħ": 5147,
      "ç©Ĩæĸ¯æŀĹ": 5148,
      "æĿ¥è¯´": 5149,
      "åĲĦåľĭ": 5150,
      "ä¿¡éķ·": 5151,
      "åįıä¼ļ": 5152,
      "åľĸæĽ¸é¤¨": 5153,
      "èł": 5154,
      "åľĭæĹĹ": 5155,
      "éĤª": 5156,
      "å®īå¾·": 5157,
      "çģ«ç®Ń": 5158,
      "æķĻèĤ²éĥ¨": 5159,
      "Ġh": 5160,
      "å§ľ": 5161,
      "è´º": 5162,
      "ä¸¦æ²Ĵæľī": 5163,
      "ç¹ª": 5164,
      "å¼ķåıĳ": 5165,
      "æ¨¡çī¹": 5166,
      "æľĭåıĭ": 5167,
      "81": 5168,
      "çļĦæ¦Ĥå¿µ": 5169,
      "ä¹°": 5170,
      "å±±è¥¿": 5171,
      "æ©Łæ¢°": 5172,
      "ence": 5173,
      "åĲ«æľī": 5174,
      "é£Łçī©": 5175,
      "çº²": 5176,
      "äºİæĺ¯": 5177,
      "é©¬åħĭæĢĿ": 5178,
      "Ġ1999": 5179,
      "ction": 5180,
      "èĽĭçĻ½è´¨": 5181,
      "ĠæĶ¿æ²»": 5182,
      "å¤§ä½¿": 5183,
      "åīĤ": 5184,
      "èĢĮéĿŀ": 5185,
      "æħķ": 5186,
      "Ġ1985": 5187,
      "éĦ°": 5188,
      "ä¼Ĭæĸ¯èĺŃ": 5189,
      "æ´Ĺ": 5190,
      "åĲĮæł·": 5191,
      "è·ĳ": 5192,
      "éĻ¢æł¡": 5193,
      "æĢ»ä¹¦è®°": 5194,
      "æł¹å»·": 5195,
      "Ġ1996": 5196,
      "è²¨å¹£": 5197,
      "Ġæł¹æį®": 5198,
      "å¤§å°ı": 5199,
      "ç»ª": 5200,
      "åŁł": 5201,
      "çķª": 5202,
      "æľĢä½İ": 5203,
      "çģ½": 5204,
      "åłĨ": 5205,
      "ç¼ĵ": 5206,
      "åħĪçĶŁ": 5207,
      "æ´Ľéĺ³": 5208,
      "æĬķåħ¥": 5209,
      "åı¦ä¸Ģæĸ¹éĿ¢": 5210,
      "è³ĩæľ¬ä¸»ç¾©": 5211,
      "æ°®": 5212,
      "ç¸½çĿ£": 5213,
      "ĠAr": 5214,
      "ç¬¦èĻŁ": 5215,
      "æĭĴçµķ": 5216,
      "Un": 5217,
      "ld": 5218,
      "çºµ": 5219,
      "çĲĨäºĭ": 5220,
      "ä¸ŃåĽ½çļĦ": 5221,
      "åĤħ": 5222,
      "æ®ĭ": 5223,
      "èģĶç³»": 5224,
      "èĴ¸": 5225,
      "èªįçĤºæĺ¯": 5226,
      "ç§¦å§ĭçļĩ": 5227,
      "èķŃ": 5228,
      "è²´æĹı": 5229,
      "83": 5230,
      "ãĢĭ:": 5231,
      "åŃ¦æľ¯": 5232,
      "å»³": 5233,
      "åıĳè¡Į": 5234,
      "æĪ°å¾Į": 5235,
      "ç·Ĵ": 5236,
      "æĸĩåĮĸå¤§éĿ©åĳ½": 5237,
      "æĶ»æĵĬ": 5238,
      "éĲĺ": 5239,
      "æ°¢": 5240,
      "ç¦¹": 5241,
      "Ġ1979": 5242,
      "èµĭ": 5243,
      "åĪĹå¯§": 5244,
      "ç·£": 5245,
      "ä¸¤ç§į": 5246,
      "å¤±è´¥": 5247,
      "æĹ¶æľŁçļĦ": 5248,
      "éļİæ®µ": 5249,
      "å«ģ": 5250,
      "ç°½ç½²": 5251,
      "é¨İ": 5252,
      "éĸ©åįĹ": 5253,
      "å¸®åĬ©": 5254,
      "RNA": 5255,
      "åħ¬å¼Ģ": 5256,
      "æĿ±åĮĹ": 5257,
      "-{}-": 5258,
      "çĽĽé¡¿": 5259,
      "å¼ĹéĩĮ": 5260,
      "ava": 5261,
      "æĵįä½ľç³»ç»Ł": 5262,
      "Ġåı¤": 5263,
      "äººæķ°": 5264,
      "æĭŁ": 5265,
      "ä¸Ĭåįĩ": 5266,
      "é«ĺå®Ĺ": 5267,
      "åŁºæĸ¯åĿ¦": 5268,
      "èīĺ": 5269,
      "1983": 5270,
      "å¥§åľ°åĪ©": 5271,
      "åĽ¾ä¹¦é¦Ĩ": 5272,
      "ĠâĢ": 5273,
      "æĭĨ": 5274,
      "åİĦ": 5275,
      "åįİçĽĽé¡¿": 5276,
      "æ´¾çļĦ": 5277,
      "ith": 5278,
      "1986": 5279,
      "å¼·èª¿": 5280,
      "åĲ¸æĶ¶": 5281,
      "94": 5282,
      "ure": 5283,
      "ãĢĤâĢľ": 5284,
      "å¤§èĩ´": 5285,
      "åĭ³": 5286,
      "ort": 5287,
      "çķĻä¸ĭ": 5288,
      "ç®Ģç§°": 5289,
      "æĹº": 5290,
      "ä¸¦éĿŀ": 5291,
      "æķ¸æĵļ": 5292,
      "éĢ²ä¸ĢæŃ¥": 5293,
      "æł¹æľ¬": 5294,
      "æµİåįĹ": 5295,
      "æĬķèµĦ": 5296,
      "åĽºå®ļ": 5297,
      "å·¨å¤§": 5298,
      "éķ·æľŁ": 5299,
      "åĪĽéĢł": 5300,
      "ç´įç²¹": 5301,
      "å¯¨": 5302,
      "éĿľ": 5303,
      "è·³": 5304,
      "å°Ĩåħ¶": 5305,
      "åºĶè¯¥": 5306,
      "Ġ1978": 5307,
      "æĦĽçĪ¾": 5308,
      "å·®çķ°": 5309,
      "ä¸Ģç³»åĪĹ": 5310,
      "å¤ļæķ°": 5311,
      "åįģæľĪ": 5312,
      "éĥ½å¸Ĥ": 5313,
      "å¼ıçļĦ": 5314,
      "æ¯ĶèµĽ": 5315,
      "è¯´æ³ķ": 5316,
      "æ½Ń": 5317,
      "ä¸»æĮģäºº": 5318,
      "Ġæľī": 5319,
      "æĹ¥åľ¨": 5320,
      "æ°ĳéĹ´": 5321,
      "èĩªè¡Į": 5322,
      "èªªæ³ķ": 5323,
      "åĮĹæµ·éģĵ": 5324,
      "æĪĲå°±": 5325,
      "çĲī": 5326,
      "æĸ°éĹ»": 5327,
      "é¾Ħ": 5328,
      "éĮ«": 5329,
      "æ°£åĢĻ": 5330,
      "å½¢æĪĲäºĨ": 5331,
      "ä¸ŃåŃ¸": 5332,
      "åľ°ä¸ĭ": 5333,
      "å¹³åı°": 5334,
      "åĨħéĥ¨": 5335,
      "æ¯ıä¸ª": 5336,
      "æ²Īæĭ¬": 5337,
      "è¿¦": 5338,
      "éŁ³èĬĤ": 5339,
      "è¨ĺéĮĦ": 5340,
      "å¾®è»Ł": 5341,
      "æĮªå¨ģ": 5342,
      "èªķ": 5343,
      "åħ¨ä¼ļ": 5344,
      "å¼ķçĻ¼": 5345,
      "éłĺè¢ĸ": 5346,
      "æĸ¹éĿ¢çļĦ": 5347,
      "çªģçł´": 5348,
      "å´ĩæĭľ": 5349,
      "éĺħè¯»": 5350,
      "æī®æ¼Ķ": 5351,
      "GDP": 5352,
      "ä½ľåĩº": 5353,
      "æıŃ": 5354,
      "éĢļä¿¡": 5355,
      "æģ¢å¾©": 5356,
      "ber": 5357,
      "é£²": 5358,
      "æĦıä¹ī": 5359,
      "æ±Łæ³½": 5360,
      "Ġ2014": 5361,
      "ics": 5362,
      "çº¿è·¯": 5363,
      "æŀĦæĪĲ": 5364,
      "å¯¹å¤ĸ": 5365,
      "äºļå½ĵ": 5366,
      "éºĵ": 5367,
      "å¯¦æĸ½": 5368,
      "ç¡«": 5369,
      "åĬªåĬĽ": 5370,
      "ML": 5371,
      "åĬį": 5372,
      "2023": 5373,
      "èĥ¶": 5374,
      "åİŁåīĩ": 5375,
      "å°ĨåĨĽ": 5376,
      "ä¸Ńå¤®æĶ¿æ²»å±Ģ": 5377,
      "è®¾å¤ĩ": 5378,
      "Ġ2012": 5379,
      "ĠPh": 5380,
      "ç©©å®ļ": 5381,
      "å±Ī": 5382,
      "çµ¡": 5383,
      "éŁ»": 5384,
      "å¹³æ°ĳ": 5385,
      "Ġ2016": 5386,
      "å¹¿åľº": 5387,
      "1958": 5388,
      "é£Łåĵģ": 5389,
      "èģĮåĬ¡": 5390,
      "MA": 5391,
      "å·«": 5392,
      "ç¬ĳ": 5393,
      "éĥ¨éķ·": 5394,
      "ç¦§": 5395,
      "å°ıåŃ¸": 5396,
      "æ±īæĹı": 5397,
      "åĲīæŀĹ": 5398,
      "ç¦»å¼Ģ": 5399,
      "çŃ¾è®¢": 5400,
      "Ġby": 5401,
      "ĠPress": 5402,
      "æĦĽçĪ¾èĺŃ": 5403,
      "è´¨éĩı": 5404,
      "çĶµè§Ĩåı°": 5405,
      "ee": 5406,
      "ç¾İåĨĽ": 5407,
      "çĻ¾åĪĨ": 5408,
      "Ġ2008": 5409,
      "éĬĢè¡Į": 5410,
      "å¶º": 5411,
      "è©¹å§Ĩæĸ¯": 5412,
      "åİŁä½ıæ°ĳ": 5413,
      "åįĴ": 5414,
      "æĺİæĺ¾": 5415,
      "æ¸¯åı£": 5416,
      "æ°Ķæ¸©": 5417,
      "éĶĻè¯¯": 5418,
      "Ġ}": 5419,
      "çļĦä¸į": 5420,
      "çļĦåİĨåı²": 5421,
      "çĶŁæĪĲ": 5422,
      "ä¸Ĭè¿°": 5423,
      "ãĢĭãĢĬ": 5424,
      "æķĻæľĥ": 5425,
      "èĥ½æºĲ": 5426,
      "åĳ¨å¹´": 5427,
      "è¿Ĳè¾ĵ": 5428,
      "çł´åĿı": 5429,
      "éĩĩåıĸ": 5430,
      "400": 5431,
      "å¯»": 5432,
      "æĭ³": 5433,
      "æļ«": 5434,
      "æŀª": 5435,
      "æĻĤçļĦ": 5436,
      "å¤ĸåĽ½": 5437,
      "æ¸ħä»£": 5438,
      "åįĶåĬ©": 5439,
      "ĠâĢł": 5440,
      "Ġ!": 5441,
      "åĽłæĸ¯åĿ¦": 5442,
      "æĥŁ": 5443,
      "èĻļ": 5444,
      "ish": 5445,
      "è§ĦåĪĻ": 5446,
      "é¢¨æł¼": 5447,
      "æıĲä¾ĽäºĨ": 5448,
      "åĮĪå¥´": 5449,
      "pl": 5450,
      "å®°": 5451,
      "æĸĲ": 5452,
      "1920": 5453,
      "å·´åŁºæĸ¯åĿ¦": 5454,
      "å±±èĦī": 5455,
      "åŃ¦çļĦ": 5456,
      "æ±ª": 5457,
      "ç®¡è¾ĸ": 5458,
      "Ġ2013": 5459,
      "1985": 5460,
      "å¿ħè¦ģ": 5461,
      "çº³ç²¹": 5462,
      "è§Ĥå¯Ł": 5463,
      "æ¸Ľå°ĳ": 5464,
      "âĶĢâĶĢ": 5465,
      "è´¡çĮ®": 5466,
      "EE": 5467,
      "å¥Ķ": 5468,
      "è¦½": 5469,
      "é¡µ": 5470,
      "ont": 5471,
      "åħ§éĥ¨": 5472,
      "æ©ŁéĹľ": 5473,
      "æĽ¾åľ¨": 5474,
      "å¼ķåħ¥": 5475,
      "çģ«æĺŁ": 5476,
      "ros": 5477,
      "çļĦåŁİå¸Ĥ": 5478,
      "å¸¸è¦ĭ": 5479,
      "èĻĳ": 5480,
      "æµģåŁŁ": 5481,
      "ä¾Ŀæĵļ": 5482,
      "å°Īè¼¯": 5483,
      "ä¼½åĪ©": 5484,
      "Ġæ³¨éĩĬ": 5485,
      "çĶ¨ä¾Ĩ": 5486,
      "æľºæ¢°": 5487,
      "å·²æľī": 5488,
      "ä¼łæĴŃ": 5489,
      "1984": 5490,
      "ĠâĢĵ": 5491,
      "éĢ®": 5492,
      "å¸Ĥæ°ĳ": 5493,
      "Ġ1998": 5494,
      "å¥¥åľ°åĪ©": 5495,
      "åĩ½æķ°": 5496,
      ",(": 5497,
      "Ch": 5498,
      "éĢ¼": 5499,
      "æĿ±äº¬": 5500,
      "æł¡åĮº": 5501,
      "è¿ĲèĲ¥": 5502,
      "åĨľæ°ĳ": 5503,
      "åĵ¥ä¼¦": 5504,
      "çĥıåħĭèĺŃ": 5505,
      "æ±Łæ³½æ°ĳ": 5506,
      "åĢ¾": 5507,
      "æ¬£": 5508,
      "åĩ»è´¥": 5509,
      "æĴ¤éĶĢ": 5510,
      "è·Ŀç¦»": 5511,
      "ä¼°è¨Ī": 5512,
      "io": 5513,
      "éĻ¢å£«": 5514,
      "èįĢ": 5515,
      "çĽ®æ¨Ļ": 5516,
      "æĹłçº¿": 5517,
      "å¤±æķĹ": 5518,
      "æı´åĬ©": 5519,
      "age": 5520,
      "äººå¤§å¸¸å§Ķä¼ļ": 5521,
      "çī¹å¾ģ": 5522,
      "æŀĹåĮ¹": 5523,
      "ç§»åĬ¨": 5524,
      "çŁ©éĺµ": 5525,
      "Ġæĺİ": 5526,
      "ä¸Ģå¸¶": 5527,
      "å¥¶": 5528,
      "åĢī": 5529,
      "çĶ¨æĿ¥": 5530,
      "å®īæİĴ": 5531,
      "æıĲåĪ°": 5532,
      "ç¢±": 5533,
      "Ġ2002": 5534,
      "ll": 5535,
      "Ġ[": 5536,
      "åĲı": 5537,
      "åħ¨ä¸ĸçķĮ": 5538,
      "è·¯å¾·": 5539,
      "Ġ2011": 5540,
      "æıĲåĩºçļĦ": 5541,
      "æ¸¬éĩı": 5542,
      "è¯ķåĽ¾": 5543,
      "åĬªå°ĶåĵĪ": 5544,
      "åĬªå°ĶåĵĪèµ¤": 5545,
      "In": 5546,
      "åħĪå¾Į": 5547,
      "åĵĪè¿ª": 5548,
      "å¨ģå°Ķ": 5549,
      "åīµéĢł": 5550,
      "ä»Ģä¹Ī": 5551,
      ":-{": 5552,
      "çļĦæĮĩ": 5553,
      "ä¸Ģè©ŀ": 5554,
      "æľĥåľ¨": 5555,
      "å°¼åı¤": 5556,
      "ç¹ŀ": 5557,
      "å®ĥæĺ¯": 5558,
      "åıĪç¨±": 5559,
      "éªĳ": 5560,
      "ç¶ĵæ¿ŁåŃ¸": 5561,
      "éĢĢåĩº": 5562,
      "æŃĩ": 5563,
      "éłĤ": 5564,
      "å¸¸ä½ı": 5565,
      "å½±çīĩ": 5566,
      "Ġ1976": 5567,
      "æİ¡åıĸ": 5568,
      "èĤ¯å°¼": 5569,
      "éĥĳå·ŀ": 5570,
      "æµ·åįĹ": 5571,
      "éĵī": 5572,
      "åįĶèŃ°": 5573,
      "é¹¿": 5574,
      "ç¬Ľ": 5575,
      "åŁºæĸ¼": 5576,
      "å¤ªç¥ĸ": 5577,
      "å°±æľī": 5578,
      "å¡«": 5579,
      "åĩłä¸ª": 5580,
      "æ»¡æ´²": 5581,
      "Ġåľ°": 5582,
      "è®¯": 5583,
      "åįģåŃĹ": 5584,
      "åĿİ": 5585,
      "è³ŀ": 5586,
      "1000": 5587,
      "å¸¸å¸¸": 5588,
      "æ¯Ķäºŀ": 5589,
      "è°±": 5590,
      "æ´¾éģ£": 5591,
      "çŁ³åĻ¨": 5592,
      "æĹ©åľ¨": 5593,
      "æ··åĲĪ": 5594,
      "DF": 5595,
      "ĠãĢĮ": 5596,
      "Ġå¤©": 5597,
      "åįĳ": 5598,
      "æľīæĹ¶": 5599,
      "å§ļ": 5600,
      "è¾Ł": 5601,
      "ä¸ŃåľĭçļĦ": 5602,
      "äºĶä»£": 5603,
      "åħļçļĦ": 5604,
      "çī©çĲĨåŃ¸å®¶": 5605,
      "oph": 5606,
      "èĭ±æł¼èĺŃ": 5607,
      "èĪŁ": 5608,
      "èĬŃ": 5609,
      "ond": 5610,
      "1937": 5611,
      "æĲ¬": 5612,
      "äº¿ç¾İåħĥ": 5613,
      "çīĽé¡¿": 5614,
      "æī©å¤§": 5615,
      "84": 5616,
      "èĪľ": 5617,
      "å®ļå±ħ": 5618,
      "åıĪç§°": 5619,
      "Ġ2018": 5620,
      "Ġ1945": 5621,
      "æº«åº¦": 5622,
      "å¤§å¹ħ": 5623,
      "æĢ§è´¨": 5624,
      "å»ºè¨Ń": 5625,
      "è¿ĻéĩĮ": 5626,
      "æĦıåĳ³": 5627,
      "èī²çļĦ": 5628,
      "å©Ĩ": 5629,
      "éĩĿå°į": 5630,
      "CD": 5631,
      "oh": 5632,
      "æķĻå£«": 5633,
      "å¥¥æĸ¯": 5634,
      "å½¢æĪĲçļĦ": 5635,
      "åıĭå¥½": 5636,
      "åĭŀåĭķ": 5637,
      "éĽįæŃ£": 5638,
      "èı²å¾ĭè³ĵ": 5639,
      "æĶ¿é»¨": 5640,
      "ç¶«": 5641,
      "éĺ¿æł¹å»·": 5642,
      "å±ķç¤º": 5643,
      "åĦ²": 5644,
      "è®¾æĸ½": 5645,
      "æĽ¸ç±į": 5646,
      "èĸĽ": 5647,
      "ç¶²ç«Ļ": 5648,
      "mer": 5649,
      "çļĦå½¢å¼ı": 5650,
      "éļĲ": 5651,
      "å¹³è¡¡": 5652,
      "ç¯®": 5653,
      "é¢Ĩè¢ĸ": 5654,
      "Ġ2020": 5655,
      "çĻ¾å§ĵ": 5656,
      "1946": 5657,
      "çľĭåĪ°": 5658,
      "ç§ģäºº": 5659,
      "åĨłè»į": 5660,
      "æ¨¡çī¹åħĴ": 5661,
      "Linux": 5662,
      "Ġä¸Ģ": 5663,
      "è·ĥ": 5664,
      "ç³»çļĦ": 5665,
      "å»ºç«ĭçļĦ": 5666,
      "éĤĦæĺ¯": 5667,
      "å®ŀéªĮå®¤": 5668,
      "ast": 5669,
      "ç»ķ": 5670,
      "åĲĮä½į": 5671,
      "åĿĽ": 5672,
      "ern": 5673,
      "åľĭå®¶çļĦ": 5674,
      "æļĤ": 5675,
      "éĽ¢éĸĭ": 5676,
      "åįĶæľĥ": 5677,
      "éģĹäº§": 5678,
      "çļĦå·¥ä½ľ": 5679,
      "æľĢå¤ļçļĦ": 5680,
      "åĬłä»¥": 5681,
      "åħĥé¦ĸ": 5682,
      "ç¥ŀç»ı": 5683,
      "æĶ»åĩ»": 5684,
      "1975": 5685,
      "è¾½å®ģ": 5686,
      "Ġk": 5687,
      "å®ħ": 5688,
      "å¹´å¾Į": 5689,
      "æĸ¯å¡Ķ": 5690,
      "åĮĹå®ĭ": 5691,
      "æŁĶ": 5692,
      "èĤĸ": 5693,
      "éķ¿åŁİ": 5694,
      "åĽ½å®¶çº§": 5695,
      "ç¤ºå¨ģ": 5696,
      "åĪĻæĺ¯": 5697,
      "èŃīæĺİ": 5698,
      "qu": 5699,
      "è´Ĭ": 5700,
      "),ãĢĬ": 5701,
      "å»£æĴŃ": 5702,
      "ä»·åĢ¼": 5703,
      "Ġç¬¬": 5704,
      "çļĦæĹ¶åĢĻ": 5705,
      "äº¥": 5706,
      "å½»": 5707,
      "å¿Ĩ": 5708,
      "éŁµ": 5709,
      "å¤ĸçļĦ": 5710,
      "åĥļ": 5711,
      "èı¯çĽĽ": 5712,
      "æŃ¦éĵī": 5713,
      "æĽ¸è¨ĺ": 5714,
      "Ġ2019": 5715,
      "Ġ2017": 5716,
      "åĲīæĢĿ": 5717,
      "åį¢æŃ¦éĵī": 5718,
      "åħ¬çĪµ": 5719,
      "åĮĸçŁ³": 5720,
      "ç¶ľ": 5721,
      "é¢ľ": 5722,
      "ä¿®å»º": 5723,
      "1955": 5724,
      "ational": 5725,
      "èı¯çĽĽéłĵ": 5726,
      "GP": 5727,
      "çļĦåıį": 5728,
      "åľ¨å¤§": 5729,
      "æĻ¨": 5730,
      "èĥİ": 5731,
      "èĢĮæĪĲ": 5732,
      "é¡ı": 5733,
      "èĲ§": 5734,
      "åı¤èĢģ": 5735,
      "æĸĩåĮĸçļĦ": 5736,
      "end": 5737,
      "1940": 5738,
      "åºıåĪĹ": 5739,
      "çł´å£ŀ": 5740,
      "IS": 5741,
      "ook": 5742,
      "ä½¿çĶ¨èĢħ": 5743,
      "æĽ¾ä»»": 5744,
      "1948": 5745,
      "è¾ĥä¸º": 5746,
      "æī¾åĪ°": 5747,
      "æĸ¥": 5748,
      "å¹´åĲİ": 5749,
      "ong": 5750,
      "åħ§éĸ£": 5751,
      "çº§å¸Ĥ": 5752,
      "ç®Ĺæ³ķ": 5753,
      "1953": 5754,
      "ç¥ĸåħĪ": 5755,
      "Ġåĳ¨": 5756,
      "æŃĮåī§": 5757,
      "ç»´çī¹": 5758,
      "èµĦæľ¬": 5759,
      "ç§ĳåŃ¦éĻ¢": 5760,
      "æªĶ": 5761,
      "éĢ®æįķ": 5762,
      "èĤ¯å°¼è¿ª": 5763,
      "ment": 5764,
      "ä»ĳ": 5765,
      "æī¶": 5766,
      "æīģ": 5767,
      "è¾Ĩ": 5768,
      "å¤«æĸ¯åŁº": 5769,
      "çĩĴ": 5770,
      "åĵ²åŃ¦å®¶": 5771,
      "æī§æĶ¿": 5772,
      "å®¶çļĦ": 5773,
      "çķľ": 5774,
      "é¦®": 5775,
      "æĸ¹ç¨ĭ": 5776,
      "è¡¨éģĶ": 5777,
      "å²¡": 5778,
      "åĸĩ": 5779,
      "è®®éĻ¢": 5780,
      "åĲĮæĢ§æģĭ": 5781,
      "æĬµæĬĹ": 5782,
      "BC": 5783,
      "Ġg": 5784,
      "ĠçļĦ": 5785,
      "ĠæŃ·åı²": 5786,
      "çļĦåŁºæľ¬": 5787,
      "åĵĢ": 5788,
      "æŃ¤æĹ¶": 5789,
      "åłª": 5790,
      "æĪĳçļĦ": 5791,
      "åį°åĪ·": 5792,
      "çļĦæľī": 5793,
      "ä¸»æ¬Ĭ": 5794,
      "æĦĪ": 5795,
      "äºĭåĬ¡": 5796,
      "è®®åĳĺ": 5797,
      "1933": 5798,
      "è¿ĲåĬ¨åĳĺ": 5799,
      "ä¸ŃåĽ½äººæ°ĳè§£æĶ¾åĨĽ": 5800,
      "çĲĨæŁ¥": 5801,
      "æıĲåĲį": 5802,
      "åŀĤ": 5803,
      "eg": 5804,
      "æĹ¬": 5805,
      "åĪĨä¹ĭä¸Ģ": 5806,
      "Ġ2001": 5807,
      "è¡ĽæĺŁ": 5808,
      "éłĺå°İäºº": 5809,
      "NU": 5810,
      "åľ¨ä¸Ģ": 5811,
      "äººåĿĩ": 5812,
      "æľīæĻĤ": 5813,
      "æľĢéĩįè¦ģçļĦ": 5814,
      "äºļåİĨ": 5815,
      "ç§ĳåŃ¦æĬĢæľ¯": 5816,
      "åĩĨå¤ĩ": 5817,
      "åĪĽå»º": 5818,
      "ä»ĸä»¬çļĦ": 5819,
      "è¯ºè´Ŀå°Ķ": 5820,
      "åħĴç«¥": 5821,
      "çī¹åĪ«æĺ¯": 5822,
      "æ±¡æŁĵ": 5823,
      "æĻĵå¤«": 5824,
      "æŀ¢çº½": 5825,
      "åĲĮä½įç´ł": 5826,
      "åĲķ": 5827,
      "è¯¦": 5828,
      "ä¹ĭåľ°": 5829,
      "æł¼æĭī": 5830,
      "åħŃå¹´": 5831,
      "ä¼Ĺå¤ļ": 5832,
      "ä»ĸåĢĳçļĦ": 5833,
      "åĶ±çīĩ": 5834,
      "ä¼½åĪ©çķ¥": 5835,
      "è´¯": 5836,
      "å¸ĥæĭī": 5837,
      "æħ£": 5838,
      "æŁıæĭī": 5839,
      "è¹Ī": 5840,
      "ĠçĶ±æĸ¼": 5841,
      "åĬ«": 5842,
      "ç«ĭåį³": 5843,
      "åĲİæľŁ": 5844,
      "ç¾İåĽ½æĢ»ç»Ł": 5845,
      "é¾Ĳ": 5846,
      "çĮ«": 5847,
      "é²ģè¿ħ": 5848,
      "æºĸåĤĻ": 5849,
      "é£¾æ¼Ķ": 5850,
      "åĲĦåĽ½": 5851,
      "æĪıåī§": 5852,
      "è¤ĩéĽľ": 5853,
      "è¡ĮæĶ¿åĮºåĪĴ": 5854,
      "ãĢĭ)": 5855,
      "èĢĮè¢«": 5856,
      "æĬĳ": 5857,
      "çī©é«Ķ": 5858,
      "æĺİé¡¯": 5859,
      "å¸¸è§ģ": 5860,
      "å·²çŁ¥": 5861,
      "äººåı£çļĦ": 5862,
      "èħĶ": 5863,
      "å»£æĿ±": 5864,
      "èµ«é²ģ": 5865,
      "æĻļæľŁ": 5866,
      "å½ĵæĹ¶çļĦ": 5867,
      "æ¹ĸåįĹçľģ": 5868,
      "æĸĩæľ¬": 5869,
      "æľ¬åľ°": 5870,
      "æĹ¥æľ¬å¥³æĢ§": 5871,
      "Ġ2009": 5872,
      "è§Ĩä¸º": 5873,
      "ä½ľæĪ°": 5874,
      "åĮĸåŃ¸å®¶": 5875,
      "è³Ī": 5876,
      "å§Ķåĳĺéķ¿": 5877,
      "ĠNew": 5878,
      "åı¬éĸĭ": 5879,
      "äºļå½ĵæĸ¯": 5880,
      "ear": 5881,
      "ru": 5882,
      "å¯Ħ": 5883,
      "ä¸įåĪ°": 5884,
      "çī©çļĦ": 5885,
      "åĪĹåħ¥": 5886,
      "çı¾ä»»": 5887,
      "çī©çĲĨåŃ¦": 5888,
      "çĳŁå¤«": 5889,
      "èĳĽäº®": 5890,
      "æ¼ĶåĶ±æľĥ": 5891,
      "åľ¨ä¸Ń": 5892,
      "å¾ĮæľŁ": 5893,
      "å®ģå¤ı": 5894,
      "è¿ŀç»Ń": 5895,
      "é¾Ļæ±Ł": 5896,
      "è©¦åľĸ": 5897,
      "ain": 5898,
      "ire": 5899,
      "æĪĲåĲīæĢĿ": 5900,
      "ä¸»è§Ĵ": 5901,
      "æ³ķåºŃ": 5902,
      "ç¶±": 5903,
      "è²ŀ": 5904,
      "æĪ°åľĭ": 5905,
      "ç¶Ńäºŀ": 5906,
      "ĠPro": 5907,
      "1959": 5908,
      "è´µæĹı": 5909,
      "Ġåıĥè¦ĭ": 5910,
      "æ°ĳä¼Ĺ": 5911,
      "æ³ķå®ĺ": 5912,
      "æİĺ": 5913,
      "è¾©": 5914,
      "æĵ¬": 5915,
      "çĦ¶å¾Į": 5916,
      "æħ®": 5917,
      "çĨĬ": 5918,
      "ĠTh": 5919,
      "1976": 5920,
      "ä¸ĵéĹ¨": 5921,
      "å¥¹çļĦ": 5922,
      "å±łæĿĢ": 5923,
      "AR": 5924,
      "è¿Ŀ": 5925,
      "æĢª": 5926,
      "èĩªåĬ¨": 5927,
      "æ©Łæľĥ": 5928,
      "åį¡çĪ¾": 5929,
      "éĺ²æŃ¢": 5930,
      "èĬ¬åħ°": 5931,
      "æĸ°æķĻ": 5932,
      "éłģ": 5933,
      "ä¾Ĩèªª": 5934,
      "æł¼éĩĮ": 5935,
      "æĦıèŃĺ": 5936,
      "Ġ1970": 5937,
      "1967": 5938,
      "é£İæł¼": 5939,
      "è¯Ĺäºº": 5940,
      "ç¥Ńç¥Ģ": 5941,
      "ĠZ": 5942,
      "å¤ķ": 5943,
      "åħĭéĩĮæĸ¯": 5944,
      "çĽ¸åıį": 5945,
      "å³½": 5946,
      "ite": 5947,
      "æ³°åľĭ": 5948,
      "çļĦæ°´": 5949,
      "åĬ±": 5950,
      "å¿į": 5951,
      "æľĢä¸º": 5952,
      "æľºåĻ¨": 5953,
      "éŃĤ": 5954,
      "1947": 5955,
      "ä¸§": 5956,
      "åľ¨ä½į": 5957,
      "åĽ½éĶĭ": 5958,
      "ç§©": 5959,
      "å¸¸åĬ¡": 5960,
      "åķĨåĵģ": 5961,
      "åħ©ç¨®": 5962,
      "åĵ²åŃ¸å®¶": 5963,
      "å¶¼": 5964,
      "yle": 5965,
      "æĦıè¯Ĩ": 5966,
      "Ġ2015": 5967,
      "ä¿Ħåľĭ": 5968,
      "è¡Ĺéģĵ": 5969,
      "éī´": 5970,
      "è¯ļ": 5971,
      "æĹ¥æĺ¯": 5972,
      "åįİåĽ½éĶĭ": 5973,
      "éĻįæ°´": 5974,
      "æŃĲçĽŁ": 5975,
      "ä¸´æĹ¶": 5976,
      "sp": 5977,
      "å±ı": 5978,
      "æŃ¤æĻĤ": 5979,
      "åĽĽä¸ª": 5980,
      "ç²µ": 5981,
      "ä¸¤åĽ½": 5982,
      "å¼ĹéĽ·": 5983,
      "éĻķè¥¿": 5984,
      "Ġæ°´": 5985,
      "ä½ĵåĪ¶": 5986,
      "è§£æķ£": 5987,
      "1981": 5988,
      "åħ±äº§ä¸»ä¹ī": 5989,
      "ç°½è¨Ĥ": 5990,
      "ä»Ķ": 5991,
      "å¹´åĪĿ": 5992,
      "åľ¨éĢĻ": 5993,
      "æľīçĿĢ": 5994,
      "ç»©": 5995,
      "æĪĺåĽ½": 5996,
      "çĭ±": 5997,
      "ç»´å¥ĩ": 5998,
      "æ¯įè¦ª": 5999,
      "å¯ĨåĪĩ": 6000,
      "éŁĵåľĭçĶ·åŃĲåľĺé«Ķ": 6001,
      "å¹´æľ«": 6002,
      "æ°¦": 6003,
      "çĲĨå·¥": 6004,
      "æĥ¯": 6005,
      "æ®ĺ": 6006,
      "æ¨ĤåĻ¨": 6007,
      "è°ĥæķ´": 6008,
      "ç°¡ç¨±": 6009,
      "ht": 6010,
      "ç»ıåİĨ": 6011,
      "ç»ıéªĮ": 6012,
      "ç¬¬ä¸Ģä½į": 6013,
      "çķ¶éģ¸": 6014,
      "ä»ĬæĹ¥": 6015,
      "1954": 6016,
      "åŃĺåľ¨çļĦ": 6017,
      "æĹħéģĬ": 6018,
      "åĦ¿åŃĲ": 6019,
      "æĸĹäºī": 6020,
      "è´¤": 6021,
      "å¹¶æ²¡æľī": 6022,
      "æ£ī": 6023,
      "æĽ¸éĻ¢": 6024,
      "1952": 6025,
      "å´Ķ": 6026,
      "Ġå°ı": 6027,
      "ĠæĸĩåĮĸ": 6028,
      "åħĨ": 6029,
      "çĶŁçĲĨ": 6030,
      "æľ¬äºº": 6031,
      "æĪĺæĸĹ": 6032,
      "å®£åĳĬ": 6033,
      "åħ·ä½ĵ": 6034,
      "è±¡å¾µ": 6035,
      "çªĹ": 6036,
      "è¶ħæĸ°": 6037,
      "å°ĪåĪ©": 6038,
      "éĽħåħ¸": 6039,
      "ä¸Ī": 6040,
      "ä»¥æŃ¤": 6041,
      "æ¸ł": 6042,
      "éļ±": 6043,
      "çĻ¼å°Ħ": 6044,
      "åĨħæĪĺ": 6045,
      "æ¹ĸæ³Ĭ": 6046,
      "è¨ĺèĢħ": 6047,
      "è¯ķéªĮ": 6048,
      "è¿½æº¯": 6049,
      "ĠèĩºåĮĹå¸Ĥ": 6050,
      "çļĦæĥħæ³ģ": 6051,
      "ä¸Ńè¢«": 6052,
      "ä¸Ģæ®µ": 6053,
      "åľĭéĺ²": 6054,
      "äº¤éĢļå¤§åŃ¦": 6055,
      "éĻ·åħ¥": 6056,
      "èĳ£äºĭ": 6057,
      "æĹ¥å¸¸": 6058,
      "çŃ¹": 6059,
      "æĢ§è³ª": 6060,
      "erv": 6061,
      "æĦıç¾©": 6062,
      "ç§°ä½ľ": 6063,
      "ç·©": 6064,
      "1966": 6065,
      "çī¹åĪ¥è¡ĮæĶ¿åįĢ": 6066,
      "éĴĪå¯¹": 6067,
      "è²¢çį»": 6068,
      "èµ«é²ģæĻĵå¤«": 6069,
      "uc": 6070,
      "å¤§åħ¬": 6071,
      "åĨĴ": 6072,
      "èªĵ": 6073,
      "ä½¿åħ¶": 6074,
      "æ¡ĵ": 6075,
      "å°Īæ¥Ń": 6076,
      "æľĢé«ĺçļĦ": 6077,
      "æİĪæ¬Ĭ": 6078,
      "åĩºçİ°äºĨ": 6079,
      "tern": 6080,
      "åĪ¸": 6081,
      "åº¸": 6082,
      "ä½ľæĪĺ": 6083,
      "è¥¿æ¹ĸ": 6084,
      "å®ļäºĨ": 6085,
      "äºĭå®ŀ": 6086,
      "ç¥ŀè®º": 6087,
      "å°ļæľª": 6088,
      "è©ķåĥ¹": 6089,
      "åį±æľº": 6090,
      "éĩįè¦ĸ": 6091,
      "å²Ĺ": 6092,
      "åĸª": 6093,
      "å¡Ĭ": 6094,
      "æ¹¿": 6095,
      "é©¬åĵĪè¿ª": 6096,
      "æĪĲä¸ºäºĨ": 6097,
      "1951": 6098,
      "ç§¯æŀģ": 6099,
      "ĠåıĥèĢĥè³ĩæĸĻ": 6100,
      "èĭ±æł¼åħ°": 6101,
      "ãĦ": 6102,
      "éĸī": 6103,
      "å¤©é«Ķ": 6104,
      "éĩĮå£«": 6105,
      "æ¯Ķè³½": 6106,
      "èµ·ä¾Ĩ": 6107,
      "ç¸±": 6108,
      "ä¿¡å¾Ĵ": 6109,
      "èħ³": 6110,
      "åĶĲä»£": 6111,
      "å¼ºè°ĥ": 6112,
      "Ġ1960": 6113,
      "ĠåĴĮ": 6114,
      "çļĦä»£è¡¨": 6115,
      "éĢ¸": 6116,
      "éĻª": 6117,
      "èĪ±": 6118,
      "å§¬": 6119,
      "è¢«è¦ĸçĤº": 6120,
      "å¤ĸåľĭ": 6121,
      "æł¡éķ¿": 6122,
      "éĽĨåĲĪ": 6123,
      "çĶ·æŃĮæīĭ": 6124,
      "å°ģå»º": 6125,
      "èĪŀè¹Ī": 6126,
      "ãĢīãĢĤ": 6127,
      "NE": 6128,
      "åľ¨ä»ĸ": 6129,
      "å¤ļåĢĭ": 6130,
      "åĬłå¼º": 6131,
      "çĻ¼èµ·": 6132,
      "1961": 6133,
      "ç§ĺä¹¦": 6134,
      "Ġå¹´": 6135,
      "åįĹéĺ³": 6136,
      "ä½Ĩä»ĸ": 6137,
      "ert": 6138,
      "ons": 6139,
      "çı¾ä»Ĭ": 6140,
      "éķ·çļĦ": 6141,
      "æļĸ": 6142,
      "è¡ĮæĶ¿éĻ¢": 6143,
      "èģ²æĺİ": 6144,
      "æĿĤå¿Ĺ": 6145,
      "æŃ¡è¿İ": 6146,
      "éĭ¼çĲ´": 6147,
      "æŀĹåĮ¹åħĭ": 6148,
      "Ġäººåı£": 6149,
      "åıī": 6150,
      "èĩªæĪĳ": 6151,
      "æĢ§æĪĢ": 6152,
      "æ¬¡åħ¨åĽ½": 6153,
      "åĮħæĭ¬äºĨ": 6154,
      "align": 6155,
      "ä¸»ç¾©èĢħ": 6156,
      "æķĪæŀľ": 6157,
      "èĸ©åħĭ": 6158,
      "çĬ¯ç½ª": 6159,
      "NT": 6160,
      "çļĦæľĢ": 6161,
      "åĩºåľŁ": 6162,
      "èªł": 6163,
      "åĮĹç¾İ": 6164,
      "åħĭåħ°": 6165,
      "å®£ä¼ł": 6166,
      "1939": 6167,
      "çķ¶æĻĤçļĦ": 6168,
      "è©ķè«ĸ": 6169,
      "å±ħä½ıåľ¨": 6170,
      "ile": 6171,
      "çļĦåİŁåĽł": 6172,
      "å¤§è¦ıæ¨¡": 6173,
      "æĶ¹çĤº": 6174,
      "æķ¸åŃ¸å®¶": 6175,
      "orld": 6176,
      "èĦħ": 6177,
      "èħĵ": 6178,
      "æ¶Īå¤±": 6179,
      "äººæīį": 6180,
      "åľĭåĭĻ": 6181,
      "éĽĩ": 6182,
      "åŃ¸ç§ĳ": 6183,
      "æŀļ": 6184,
      "åįģå¤§": 6185,
      "è¶ĭ": 6186,
      "æł¼å¼ı": 6187,
      "æĶ¹éĢł": 6188,
      "çĶµåı°": 6189,
      "1973": 6190,
      "enter": 6191,
      "æĺ¯ä¸į": 6192,
      "æĪĲåĪĨ": 6193,
      "æ³ķåħ°": 6194,
      "æĹ¶ä»»": 6195,
      "æ¬¡å¹´": 6196,
      ")ãĢģãĢĬ": 6197,
      "åĤ¾åĲĳ": 6198,
      "åįĸ": 6199,
      "å¤§å¸Ŀ": 6200,
      "åĪ°è¾¾": 6201,
      "è·¡": 6202,
      "ä¸ľæĸ¹": 6203,
      "ç©ºæ°Ķ": 6204,
      "ç¼ĺ": 6205,
      "çļĦä¸Ģç§į": 6206,
      "æ¯įäº²": 6207,
      "1941": 6208,
      "é»ĳé¾Ļæ±Ł": 6209,
      "æģĲé¾į": 6210,
      "Ġç¬¬åįģ": 6211,
      "åľ¨ç¾İåĽ½": 6212,
      "æ°¨": 6213,
      "åĭµ": 6214,
      "çİĭåŃĲ": 6215,
      "åĿĿ": 6216,
      "æģ°": 6217,
      "ç£·": 6218,
      "éĨ«éĻ¢": 6219,
      "é¼ł": 6220,
      "éĭĴ": 6221,
      "åĮ¯": 6222,
      "æĹ¥åĨĽ": 6223,
      "æĬĦ": 6224,
      "é«ĺæł¡": 6225,
      "çģĮ": 6226,
      "é¦ĸä»»": 6227,
      "å½¢å®¹": 6228,
      "æ¢µ": 6229,
      "Ġ1971": 6230,
      "å¯¦éļĽä¸Ĭ": 6231,
      "çĽĨåľ°": 6232,
      "ç³§": 6233,
      "è²«": 6234,
      "éħ·": 6235,
      "èªįåĲĮ": 6236,
      "çĽ¸åĲĮçļĦ": 6237,
      "ubl": 6238,
      "éĢĴ": 6239,
      "è¥¿éĩĮ": 6240,
      "Ġ1950": 6241,
      "å®ļçĲĨ": 6242,
      "ç¶ĵåħ¸": 6243,
      "è±«": 6244,
      "åĤ³æĴŃ": 6245,
      "éĴł": 6246,
      "åĨ³è®®": 6247,
      "å¡ŀæĭľ": 6248,
      "æİĴåĪĹ": 6249,
      "Ġ1967": 6250,
      "æĲŃ": 6251,
      "ç¼ĸç¨ĭ": 6252,
      "æļ´åĬĽ": 6253,
      "åºŁéĻ¤": 6254,
      "NBA": 6255,
      "çĤŃ": 6256,
      "çŁ£": 6257,
      "åįĢçļĦ": 6258,
      "æ¶¯": 6259,
      "æ¯ıåĢĭ": 6260,
      "ä»įæľī": 6261,
      "æ½ľ": 6262,
      "1969": 6263,
      "Ġ1969": 6264,
      "ç¾ħé¦¬å¸Ŀåľĭ": 6265,
      "è´§å¸ģ": 6266,
      "ology": 6267,
      "Ġå·´": 6268,
      "æķĺ": 6269,
      "æĪĲæŀľ": 6270,
      "è¾¯": 6271,
      "åŁİéķĩ": 6272,
      "éĮ¦": 6273,
      "ĠæĿ±": 6274,
      "ä»ĩ": 6275,
      "äººæķ¸": 6276,
      "æīĢè¬Ĥ": 6277,
      "ä¸īåĽ½": 6278,
      "å°ıåŃ¦": 6279,
      "æ°´åĪ©": 6280,
      "è¿ĩåİ»": 6281,
      "æ·»": 6282,
      "çĻ¾å¹´": 6283,
      "çĨ¹": 6284,
      "åı¦æľī": 6285,
      "è£Ķç¾İåľĭ": 6286,
      "Ġå®ī": 6287,
      "1918": 6288,
      "æĹ¥æľŁ": 6289,
      "åĮĹæ´ĭ": 6290,
      "æĶ¿æ²»åįıåķĨ": 6291,
      "åĲīå°Ķ": 6292,
      "åģļåĩº": 6293,
      "éĻĨåĨĽ": 6294,
      "èĪŀåı°": 6295,
      "èĩ¨æĻĤ": 6296,
      "æ»ĭçĹħ": 6297,
      "å°¼åı¤æĭī": 6298,
      "ä¸ŃæľĢ": 6299,
      "ä¸įä¼ļ": 6300,
      "åįģä¸ĥ": 6301,
      "éĥ½åľ¨": 6302,
      "å§ĭäºº": 6303,
      "åı¯ä»¥åľ¨": 6304,
      "ç¾¤å²Ľ": 6305,
      "Ġ1977": 6306,
      "åĽ¢ä½ĵ": 6307,
      "Ġ1968": 6308,
      "åĦ¿ç«¥": 6309,
      "è¾ĸåĮº": 6310,
      "è¯¸ä¾¯": 6311,
      "è´¢æĶ¿": 6312,
      "++": 6313,
      "åĩºèº«": 6314,
      "ç®±": 6315,
      "å±ķå¼Ģ": 6316,
      "å·´å°¼äºŀ": 6317,
      "åıªè¦ģ": 6318,
      "èĦĤ": 6319,
      "å¾ŀäºĭ": 6320,
      "ç»´äºļ": 6321,
      "è«¸ä¾¯": 6322,
      "è²¡æĶ¿": 6323,
      "æĪĲåĲīæĢĿæ±Ĺ": 6324,
      "120": 6325,
      "ode": 6326,
      "å¹½": 6327,
      "æĿ¯": 6328,
      "å»Ĭ": 6329,
      "æķĻç§ĳ": 6330,
      "å¹¶åħ¥": 6331,
      "çĭĤ": 6332,
      "ition": 6333,
      "æł¸éħ¸": 6334,
      "Ġ1973": 6335,
      "1963": 6336,
      "åį«çĶŁ": 6337,
      "è¿ĩç¨ĭä¸Ń": 6338,
      "cl": 6339,
      "ç¨»": 6340,
      "å¤ļå¾·": 6341,
      "è®ºæĸĩ": 6342,
      "æĪ²åĬĩ": 6343,
      "å¥³åŃĲåģ¶åĥıåľĺé«Ķ": 6344,
      "åºļ": 6345,
      "æķĻä¼ļ": 6346,
      "çī¹æĢ§": 6347,
      "èĤº": 6348,
      "ins": 6349,
      "åĪĹå®ģ": 6350,
      "ç¨±åĳ¼": 6351,
      "æİ¨åĭķ": 6352,
      "æĻĤæľŁçļĦ": 6353,
      "åħĴåŃĲ": 6354,
      "é«Ķç³»": 6355,
      "çľģä»½": 6356,
      "Ġ--": 6357,
      "1957": 6358,
      "å¾ĹåĪ°äºĨ": 6359,
      "yth": 6360,
      "Ġ&": 6361,
      "çļĦæĢĿæĥ³": 6362,
      "1912": 6363,
      "è¯ı": 6364,
      "èµı": 6365,
      "å£ĩ": 6366,
      "éķ¿çļĦ": 6367,
      "æıĲåĢ¡": 6368,
      "èĭıç»´": 6369,
      "oft": 6370,
      "æ½Ľ": 6371,
      "è§Ĥæµĭ": 6372,
      "è¿ĲåĬ¨ä¼ļ": 6373,
      "æĨ¶": 6374,
      "ç½Ĺé©¬å¸ĿåĽ½": 6375,
      "åŁ·æĶ¿": 6376,
      "ç§©åºı": 6377,
      "Ġæ¸ħ": 6378,
      "æĸľ": 6379,
      "ä¸Ńåħ¨ä¼ļ": 6380,
      "ä»¥åįĹ": 6381,
      "ä»ĸæĺ¯": 6382,
      "éĩĮäºļ": 6383,
      "ç»´åĲ¾": 6384,
      "Ġ1972": 6385,
      "1968": 6386,
      "çĥĪçļĦ": 6387,
      "å¤§æī¹": 6388,
      "æ²Ł": 6389,
      "ä½ľæ¥Ń": 6390,
      "èĥģ": 6391,
      "åŃĲå¥³": 6392,
      "è¶¨": 6393,
      "èĦļ": 6394,
      "æ°ĳä¸»åħļ": 6395,
      "ç»´åĲ¾å°Ķ": 6396,
      "çļĦéĥ¨åĪĨ": 6397,
      "å°¹": 6398,
      "å·¢": 6399,
      "åĨ¶": 6400,
      "æĹ¥æĬ¥": 6401,
      "åĩºåħµ": 6402,
      "ä¸Ĭä¸ĭ": 6403,
      "åħ¬å°º": 6404,
      "é«ĺçº§": 6405,
      "ä½įçļĦ": 6406,
      "èĩ³æŃ¤": 6407,
      "éģĵåħī": 6408,
      "ç¢İ": 6409,
      "...": 6410,
      "è§Ĵåº¦": 6411,
      "çĪ¶æ¯į": 6412,
      "éĽľèªĮ": 6413,
      "åĹ£": 6414,
      "iz": 6415,
      "pr": 6416,
      "ram": 6417,
      "ĠQ": 6418,
      "ä¸įä»ħ": 6419,
      "çĲĨæĢ§": 6420,
      "çľģçº§": 6421,
      "è¾¾å°Ķ": 6422,
      "çĸĬ": 6423,
      "äº¦æĺ¯": 6424,
      "Ġ1975": 6425,
      "1936": 6426,
      "ç£¨": 6427,
      "æĳ©æĸ¯": 6428,
      "åĩ¤": 6429,
      "å¿ĺ": 6430,
      "çī¹å¾µ": 6431,
      "è¼»": 6432,
      "æĶ¿åºľåľ¨": 6433,
      "ç©ºåĨĽ": 6434,
      "å±ĢéĿ¢": 6435,
      "æİ¨åĬ¨": 6436,
      "èķ¾": 6437,
      "An": 6438,
      "Ġèĩºçģ£": 6439,
      "çļĦåľ°ä½į": 6440,
      "å¹´åĴĮ": 6441,
      "å¤§å¤«": 6442,
      "åĨĪ": 6443,
      "å½Ļ": 6444,
      "å·¥ä¼ļ": 6445,
      "å¹¶äºİ": 6446,
      "åı¸é©¬": 6447,
      "è¨Ńæľī": 6448,
      "ä¼Ĭæĸ¯åħ°æķĻ": 6449,
      "GB": 6450,
      "çļĦåķıé¡Į": 6451,
      "å¤§æ°£": 6452,
      "æľĢè¿ĳ": 6453,
      "ç«ĭæĸ¹": 6454,
      "ä¸īå³¡": 6455,
      "éģĶæĪĲ": 6456,
      "æ¨Ĥåľĺ": 6457,
      "éģ¸æīĭ": 6458,
      "omm": 6459,
      "èķĥ": 6460,
      "åħģè¨±": 6461,
      "åı«åģļ": 6462,
      "é«ĺçŃīæķĻèĤ²": 6463,
      "ä½ľçī©": 6464,
      "ä¼ļåĳĺ": 6465,
      "ç±Į": 6466,
      "çįĦ": 6467,
      "äºĶåįģ": 6468,
      "icros": 6469,
      "éģĹä¼ł": 6470,
      "åĭĿåĪ©": 6471,
      "éĢ±æľŁ": 6472,
      "éĴ¢çĲ´": 6473,
      "``": 6474,
      "Ľèµ·": 6475,
      "åŁĭ": 6476,
      "åĩºä¾Ĩ": 6477,
      "ç¾İè»į": 6478,
      "æĹ¶çļĦ": 6479,
      "äººæ°ĳå¸ģ": 6480,
      "åį¡æĭī": 6481,
      "èº«äº¡": 6482,
      "åħ«å¹´": 6483,
      "1972": 6484,
      "çľĭæ³ķ": 6485,
      "åį«æĺŁ": 6486,
      "å®ŀéĻħä¸Ĭ": 6487,
      "æĹ¥èªŀ": 6488,
      "åľ°éĵģ": 6489,
      "åĮĹå¹³": 6490,
      "åĵģçīĮ": 6491,
      "åħ©åľĭ": 6492,
      "åįĥç±³": 6493,
      "æĹ©æľŁçļĦ": 6494,
      "æ¯«ç±³": 6495,
      "600": 6496,
      "Java": 6497,
      "Ġå®ĹæķĻ": 6498,
      "ĠæŃ¤å¤ĸ": 6499,
      "æĵİ": 6500,
      "å½¢æĢģ": 6501,
      "è®ĬæĪĲ": 6502,
      "æ·±åħ¥": 6503,
      "å¸ĪèĮĥ": 6504,
      "æĹ¥æľ¬å¥³æĢ§èģ²åĦª": 6505,
      "ly": 6506,
      "Ġå»¶ä¼¸": 6507,
      "åıĻ": 6508,
      "å¾ĹçŁ¥": 6509,
      "åĽĽåįģ": 6510,
      "æįĲ": 6511,
      "èĢĥèĻĳ": 6512,
      "åĨłåĨĽ": 6513,
      "Ġå¥¥": 6514,
      "çļĦç¶ĵæ¿Ł": 6515,
      "æľīèĳĹ": 6516,
      "è´«": 6517,
      "åħ©äºº": 6518,
      "å¯Ĩè¥¿": 6519,
      "åı°çģ£æ£Ĵ": 6520,
      "å®¢è¿Ĳ": 6521,
      "è¼ĥçĤº": 6522,
      "åĪĽç«ĭ": 6523,
      "åĽ½æ°ĳåħļ": 6524,
      "CO": 6525,
      "åľ¨ä¸Ģèµ·": 6526,
      "çĶ¨éĢĶ": 6527,
      "å¾·æĭī": 6528,
      "å¾·åįİ": 6529,
      "èīĩ": 6530,
      "ç©ºè»į": 6531,
      "è±¡å¾ģ": 6532,
      "åĮĹäº¬å¤§åŃ¦": 6533,
      "1938": 6534,
      "ĠRe": 6535,
      "æ¾³å¤§åĪ©äºļ": 6536,
      "æĹ¥çĽĬ": 6537,
      "ä¸»é¡Į": 6538,
      "ä¹Łæľĥ": 6539,
      "é¦ĸçļĦ": 6540,
      "ç¾İåľĭç¸½çµ±": 6541,
      "åħ¶ä¸ŃåĮħæĭ¬": 6542,
      "å¯¦çı¾": 6543,
      "å®ĮåĸĦ": 6544,
      "æŁ¥çĲĨ": 6545,
      "éĢ£æİ¥": 6546,
      "èĪĪå»º": 6547,
      "use": 6548,
      "æĻºåĪ©": 6549,
      "èĭıç»´åŁĥ": 6550,
      "Ġä»İ": 6551,
      "çļĦåŁºç¡Ģ": 6552,
      "å¤§æ¡¥": 6553,
      "äºĨä¸Ģä¸ª": 6554,
      "ä¸ĭæ¸¸": 6555,
      "åħĭæĭī": 6556,
      "å¼Ģå±ķ": 6557,
      "åĻ¶": 6558,
      "æĻ®åĭĴ": 6559,
      "æł¹æĸ¯åĿ¦": 6560,
      "å´Ľèµ·": 6561,
      "æĤł": 6562,
      "1932": 6563,
      "1935": 6564,
      "ä¿ĥè¿Ľ": 6565,
      "æĵ´å¤§": 6566,
      "ç«¶çĪŃ": 6567,
      "ĠçĶ±äºİ": 6568,
      "åº¶": 6569,
      "åĲĪä½µ": 6570,
      "éĥ½ä¼ļ": 6571,
      "åĿĳ": 6572,
      "æĺŁç³»": 6573,
      "170": 6574,
      "å¾Īå°ĳ": 6575,
      "å¨ģèĦħ": 6576,
      "æľĢé«ĺæ³ķéĻ¢": 6577,
      "ä¸ĺéĻµ": 6578,
      "å¹´åĪ°": 6579,
      "ä¸ĢåĲĮ": 6580,
      "ä¸Ģè¯į": 6581,
      "åĩĿ": 6582,
      "ä¹ĭæĪĺ": 6583,
      "çĶ¨ä½ľ": 6584,
      "è¢«è®¤ä¸ºæĺ¯": 6585,
      "äºĭå¯¦": 6586,
      "è³Ģ": 6587,
      "åı²ç§°": 6588,
      "å¼ĢéĢļ": 6589,
      "çĵ·": 6590,
      "æ²ĻçĶ°": 6591,
      "Ġ1966": 6592,
      "icrosoft": 6593,
      "Ġé©¬": 6594,
      "1917": 6595,
      "1929": 6596,
      "ä¸įæ»¿": 6597,
      "ç¨į": 6598,
      "å¸ĥå°Ķ": 6599,
      "æŃ»åĲİ": 6600,
      "ç»´æĮģ": 6601,
      "1934": 6602,
      "çĻ¾ç§ĳåħ¨": 6603,
      "éįµçĲ´": 6604,
      "ĠåıĥèĢĥæĸĩçį»": 6605,
      "æľĶ": 6606,
      "å¾¹": 6607,
      "éĥµ": 6608,
      "æĢķ": 6609,
      "ç¤Ļ": 6610,
      "è¿Ļæ¬¡": 6611,
      "çľģçļĦ": 6612,
      "å¨Ľ": 6613,
      "åį°å°¼": 6614,
      "æĶ»æīĵ": 6615,
      "ç©įæ¥µ": 6616,
      "Ġæĸĩ": 6617,
      "æĺİç¡®": 6618,
      "çĻ½å°¼": 6619,
      "çİĩé¢Ĩ": 6620,
      "è¶ħè¶Ĭ": 6621,
      "æ´ĽæĿī": 6622,
      "è«ĩåĪ¤": 6623,
      "æĬ±": 6624,
      "å¤ļäºº": 6625,
      "åŃĹç¬¦": 6626,
      "ç¿ģ": 6627,
      "å¼ķæĵİ": 6628,
      "éĢ£çºĮ": 6629,
      "åľĭæ°ĳæĶ¿åºľ": 6630,
      "äººé¡ŀåŃ¸": 6631,
      "å·¨å¤§çļĦ": 6632,
      "ç¬¬ä¸Ģæ¬¡ä¸ĸçķĮå¤§": 6633,
      "å°Ŀ": 6634,
      "æĻĤä»»": 6635,
      "å¤©çļĦ": 6636,
      "è©Ķ": 6637,
      "éĢ²æŃ¥": 6638,
      "çİĩéłĺ": 6639,
      "ä¹Ŀå¹´": 6640,
      "1944": 6641,
      "åįıåĴĮ": 6642,
      "1931": 6643,
      "è¯Ħè®º": 6644,
      "çļĦéĹľä¿Ĥ": 6645,
      "åºŀ": 6646,
      "æ±Ŀ": 6647,
      "åĻ¨çļĦ": 6648,
      "ä¸ĥæľĪ": 6649,
      "æĬķè³ĩ": 6650,
      "åĵ¥çĻ½å°¼": 6651,
      "æĴŃæĶ¾": 6652,
      "act": 6653,
      "æħĪç¦§": 6654,
      "èļĮ": 6655,
      "å¹´è¼ķ": 6656,
      "æĹ±": 6657,
      "æĹ¥èµ·": 6658,
      "åĮĹå¤§": 6659,
      "æıĲåıĬ": 6660,
      "é¦¬åħĭ": 6661,
      "æĿ±æĸ¹": 6662,
      "å¨ģèĥģ": 6663,
      "ä¼¯çĪµ": 6664,
      "çµĦåĲĪ": 6665,
      "å¼ĹæľĹ": 6666,
      "è¯ģæį®": 6667,
      "çº¢åĨĽ": 6668,
      "éĺ»æŃ¢": 6669,
      "åľ°å½¢": 6670,
      "æĸ¯æĭīå¤«": 6671,
      "å¦¥": 6672,
      "æºĿ": 6673,
      "è¯´æĺİ": 6674,
      "æ²¿å²¸": 6675,
      "é¹½": 6676,
      "åĶ¯ä¸ĢçļĦ": 6677,
      "å»¢éĻ¤": 6678,
      "ohn": 6679,
      "çļĦä¿¡": 6680,
      "çĶº": 6681,
      "æĹ¥åĴĮ": 6682,
      "æĸ¯å®¾": 6683,
      "å¿Į": 6684,
      "å¤ļåħĥ": 6685,
      "å¦Ļ": 6686,
      "æĻ®åıĬ": 6687,
      "è¶³å¤": 6688,
      "åĪĽåĬŀ": 6689,
      "åīµç«ĭ": 6690,
      "æĲŀ": 6691,
      "ç»´çī¹æł¹æĸ¯åĿ¦": 6692,
      "800": 6693,
      "ect": 6694,
      "Ġåľ°çĲĨ": 6695,
      "ä¹ĭçĪ¶": 6696,
      "çĶŁæ¶¯": 6697,
      "èģĺ": 6698,
      "å±±åĮº": 6699,
      "ç§ĳçłĶ": 6700,
      "åĲĦä¸ª": 6701,
      "ç·¨è¼¯": 6702,
      "äº«æľī": 6703,
      "ç¬¬äºĮæ¬¡ä¸ĸçķĮå¤§æĪ°": 6704,
      "1922": 6705,
      "å¯ĵ": 6706,
      "åħ¬äº¤": 6707,
      "åĭķçķ«": 6708,
      "æĹ¥æľ¬çļĦ": 6709,
      "å°ĩåħ¶": 6710,
      "åĵĪä¼Ĭ": 6711,
      "çĦ¡ç¶«": 6712,
      "åĮĹäº¬å¸Ĥ": 6713,
      "ç¼ĸè¾ĳ": 6714,
      "ä¹łä¿Ĺ": 6715,
      "è´µå·ŀ": 6716,
      "ç°¡åĸ®": 6717,
      "å¿ĥçĲĨåŃ¦": 6718,
      "ton": 6719,
      "äººæĸĩ": 6720,
      "æīĢè°ĵ": 6721,
      "æŃ¤å¾Į": 6722,
      "äºĮæľĪ": 6723,
      "éĿ¢åĲĳ": 6724,
      "å°¼éĩĩ": 6725,
      "æķ°åŃ¦å®¶": 6726,
      "ä¸¦æĸ¼": 6727,
      "ç¸¾": 6728,
      "èĴĭ": 6729,
      "æĽ´æĺ¯": 6730,
      "ä¹¦ç±į": 6731,
      "ä¸ĵå®¶": 6732,
      "ace": 6733,
      "èģļéĽĨ": 6734,
      "éĬĢæ²³": 6735,
      "æī©å±ķ": 6736,
      "ĠéĻ³": 6737,
      "ä¸Ģéĥ¨åĪĨ": 6738,
      "å»Ī": 6739,
      "åĢĭæľĪ": 6740,
      "åı²è¨ĺ": 6741,
      "ç¦ª": 6742,
      "æ¢¯": 6743,
      "åĮ»çĶŁ": 6744,
      "å¾®è½¯": 6745,
      "ä»Ģéº¼": 6746,
      "å¤©æĸĩåŃ¸å®¶": 6747,
      "æĵ´å¼µ": 6748,
      "è¨ªåķı": 6749,
      "âĪ": 6750,
      "åľ¨è¥¿": 6751,
      "æ¬½": 6752,
      "ç¥¿": 6753,
      "æº¥": 6754,
      "æĶ¾å¼ĥ": 6755,
      "éĴ¦": 6756,
      "1971": 6757,
      "1962": 6758,
      "ild": 6759,
      "éĨ«çĻĤ": 6760,
      "è±Ĳå¯Į": 6761,
      "æİ¥è§¸": 6762,
      "Ġå¼ł": 6763,
      "èĪĮ": 6764,
      "ç¬¬ä¹Ŀ": 6765,
      "è»¸": 6766,
      "éģĭè¼¸": 6767,
      "ĠMar": 6768,
      "èĻķæĸ¼": 6769,
      "éģŃåıĹ": 6770,
      "é¢ģå¸ĥ": 6771,
      "è¶ħæĸ°æĺŁ": 6772,
      "çļĦé¦ĸ": 6773,
      "ä¼ļä¸Ĭ": 6774,
      "æľĿçļĦ": 6775,
      "éĺ¿å§Ĩ": 6776,
      "æĢ»åĢ¼": 6777,
      "çĶµè¯Ŀ": 6778,
      "æ»¡æĹı": 6779,
      "èŃīæĵļ": 6780,
      "ç«ŀäºī": 6781,
      "æĶ¿æ²»åįıåķĨä¼ļè®®": 6782,
      "Ġ21": 6783,
      "å¹´å¼Ģå§ĭ": 6784,
      "åľ¨æĸ¼": 6785,
      "åľ¨ç¾İåľĭ": 6786,
      "åľ¨é¦Ļæ¸¯": 6787,
      "1928": 6788,
      "åĲĪèĤ¥": 6789,
      "è¶ģ": 6790,
      "é©¾": 6791,
      "è·¯ç·ļ": 6792,
      "æ¸ħå»·": 6793,
      "çĵ¦æĭī": 6794,
      "æĹłçº¿çĶµ": 6795,
      "äºļåİĨå±±å¤§": 6796,
      "è¼»å°Ħ": 6797,
      "DOS": 6798,
      "SM": 6799,
      "åĽ½ç«ĭ": 6800,
      "æĸ¯åħĭ": 6801,
      "æİł": 6802,
      "ãĢį;": 6803,
      "ä»»åĭĻ": 6804,
      "èªŀçļĦ": 6805,
      "åħ§æĪ°": 6806,
      "æŃ¦è£Ŀ": 6807,
      "å°ĩéłĺ": 6808,
      "æķ´çĲĨ": 6809,
      "èĭ¥å¹²": 6810,
      "ä¼ĺåĬ¿": 6811,
      "éĮ¯èª¤": 6812,
      "au": 6813,
      "Ġä¸ľ": 6814,
      "ä¸ĢçĻ¾": 6815,
      "å½Ŀ": 6816,
      "åĮºåĪ«": 6817,
      "çİĭå®¤": 6818,
      "å°įå¤ĸ": 6819,
      "æĽ´æĸ°": 6820,
      "ç»´æĬ¤": 6821,
      "æľªä¾Ĩ": 6822,
      "åħ«æľĪ": 6823,
      "éĺ³å¸Ĥ": 6824,
      "å¡ŀçĪ¾": 6825,
      "Ġ1963": 6826,
      "ĠHist": 6827,
      "æĹħè¡Į": 6828,
      "ĠåĩºçĶŁ": 6829,
      "ĠçĽ®åīį": 6830,
      "æ±¶": 6831,
      "éĤµ": 6832,
      "å§Ķä¹¦è®°": 6833,
      "ore": 6834,
      "å¾Īå¤§çļĦ": 6835,
      "è®¤è¯Ĩ": 6836,
      "ç¾¤ä¼Ĺ": 6837,
      "ä¸»ç¾©çļĦ": 6838,
      "æĬ¥éģĵ": 6839,
      "çħ§çīĩ": 6840,
      ";}-,": 6841,
      "ĠéĢĿä¸ĸ": 6842,
      "çļĦç»ıæµİ": 6843,
      "æĬ¼": 6844,
      "ä½įå±ħ": 6845,
      "å¦ĤåĲĮ": 6846,
      "éģĵå¤«": 6847,
      "æİ¥æĶ¶": 6848,
      "æ¶Ľ": 6849,
      "å°ĳå¥ĩ": 6850,
      "æħİ": 6851,
      "èĢĥè¯ķ": 6852,
      "çĮĽ": 6853,
      "1965": 6854,
      "å¡ŀå°Ķ": 6855,
      "TV": 6856,
      "çļĦæĸĩåĮĸ": 6857,
      "å¹´åĩºçīĪ": 6858,
      "å¹´å¹³åĿĩ": 6859,
      "æ³³": 6860,
      "äºĮäºº": 6861,
      "101": 6862,
      "æĪ°é¬¥": 6863,
      "æĶ¾æ£Ħ": 6864,
      "æĹ©å¹´": 6865,
      "è¨Ńç½®": 6866,
      "å®ĭä»£": 6867,
      "è¾¹å¢ĥ": 6868,
      "èŀº": 6869,
      "è°ĪåĪ¤": 6870,
      "è¼¸åħ¥": 6871,
      "çļĦæĦıæĢĿ": 6872,
      "è¿Ļæł·çļĦ": 6873,
      "è¢Ńåĩ»": 6874,
      "å¹«åĬ©": 6875,
      "ost": 6876,
      "Ġat": 6877,
      "Ġå¼µ": 6878,
      "ä¸ŀ": 6879,
      "å®´": 6880,
      "æĺ¯çĤº": 6881,
      "1921": 6882,
      "æķĸ": 6883,
      "æľĪèĩ³": 6884,
      "å¥İ": 6885,
      "ä»£æĽ¿": 6886,
      "çī©ç¨®": 6887,
      "âĢĿ,âĢľ": 6888,
      "1977": 6889,
      "æ¢ĿçĽ®": 6890,
      "èµ°åĲĳ": 6891,
      "çļĦåĲįåŃĹ": 6892,
      "Ġä»¥": 6893,
      "æ³¡": 6894,
      "æķĻåŃ¦": 6895,
      "ç¥ł": 6896,
      "é¢Ĺ": 6897,
      "ä¹Įé²ģ": 6898,
      "Ġé¦¬": 6899,
      "æĢİ": 6900,
      "æµı": 6901,
      "è·µ": 6902,
      "çıĬ": 6903,
      "ç»ıåħ¸": 6904,
      "ens": 6905,
      "éĤ£ä¹Ī": 6906,
      "è´Ŀå¤ļèĬ¬": 6907,
      "åħ¼ä»»": 6908,
      "æ»ħäº¡": 6909,
      "æ²³æµģåŁŁ": 6910,
      "HT": 6911,
      "ä¸»æµģ": 6912,
      "åİ¦": 6913,
      "ãĢĬãĢĭ": 6914,
      "å¾·è¯Ń": 6915,
      "éĤı": 6916,
      "å¯¹åºĶ": 6917,
      "åĽĽäºº": 6918,
      "èºį": 6919,
      "ä»İäºĭ": 6920,
      "åħµåĬĽ": 6921,
      "èĨ¨": 6922,
      "æ¬¢è¿İ": 6923,
      "ach": 6924,
      "çļĦå¥³": 6925,
      "1927": 6926,
      "ä¾¨": 6927,
      "è¡Įä½¿": 6928,
      "ä¹ŁåĽłæŃ¤": 6929,
      "çī¹éĩĮ": 6930,
      "è³ľ": 6931,
      "å°¼æ³Ĭ": 6932,
      "äºĶæľĪ": 6933,
      "æľ«æľŁ": 6934,
      "å·®å¼Ĥ": 6935,
      "ä¹Įåħĭåħ°": 6936,
      "å½¼æŃ¤": 6937,
      "æ£ĢæŁ¥": 6938,
      "è¦ĨçĽĸ": 6939,
      "æ¯ĶåĪ©æĻĤ": 6940,
      "1925": 6941,
      "å®¶äºº": 6942,
      "çĶŁæĢģ": 6943,
      "ç«Ł": 6944,
      "çĻĮ": 6945,
      "åĪĨæĪĲ": 6946,
      "åĪĨä½Ī": 6947,
      "éļ»": 6948,
      "æĢ§åĪ¥": 6949,
      "éŁ³çļĦ": 6950,
      "å·´å£«": 6951,
      "æĢ»éĿ¢ç§¯": 6952,
      "èī²å½©": 6953,
      "ä¸Ĭæµ·å¸Ĥ": 6954,
      "éŁĵåľĭå¥³åŃĲåľĺé«Ķ": 6955,
      "åĿļæĮģ": 6956,
      "å¨Ľæ¨Ĥ": 6957,
      "æľµ": 6958,
      "ä¸įè¦ģ": 6959,
      "ä¸Ĭæľī": 6960,
      "å»ºåĽ½": 6961,
      "åı²ç¨±": 6962,
      "ä¸¦æľª": 6963,
      "æ¶¦": 6964,
      "çłĶç©¶éĻ¢": 6965,
      "æºĲäºİ": 6966,
      "çŃĸçķ¥": 6967,
      "edia": 6968,
      "å±±ä¸ľçľģ": 6969,
      "ä¿®æŃ£æ¡Ī": 6970,
      "çļĦæĶ¿çŃĸ": 6971,
      "åľ¨ä¸Ńåľĭ": 6972,
      "åĨĢ": 6973,
      "æĢ§åĴĮ": 6974,
      "åıĳèµ·": 6975,
      "é¢ĩ": 6976,
      "æĺİç¢º": 6977,
      "160": 6978,
      "ç¹«": 6979,
      "ç¸½éĥ¨": 6980,
      "ĠEd": 6981,
      "ç¬¬ä¸īæ¬¡": 6982,
      "æ¸©åº¦": 6983,
      "åĲĮæĢ§å©ļå§»": 6984,
      "çĪµå£«": 6985,
      "è¨ĵç·´": 6986,
      "ĠçĶŁå¹³": 6987,
      "åı¯è¦ĭ": 6988,
      "èĩ³æĸ¼": 6989,
      "ç¤¾ç¾¤": 6990,
      "æł¼å°Ķ": 6991,
      "éĺ¿éĩĮ": 6992,
      "ä¸»è¦ģæľī": 6993,
      "åĳ¨è¾¹": 6994,
      "èĢĥå¯Ł": 6995,
      "æ¡Īä»¶": 6996,
      "up": 6997,
      "å®¦": 6998,
      "è¿´": 6999,
      "çĦļ": 7000,
      "å¦Ĥä»Ĭ": 7001,
      "éĩĮç¨ĭ": 7002,
      "çķĮçļĦ": 7003,
      "å°¼è¥¿äºŀ": 7004,
      "æ¡Ĩ": 7005,
      "ä¾Ŀçħ§": 7006,
      "éķĩåİĭ": 7007,
      "å£ĵåĬĽ": 7008,
      "è¸ı": 7009,
      "èĹīçĶ±": 7010,
      "å¹´çĶ±": 7011,
      "äººæĿĥ": 7012,
      "å¤§æ¨ĵ": 7013,
      "è¡Ķ": 7014,
      "èĥ¤": 7015,
      "ä»£çĲĨ": 7016,
      "åĬłå·¥": 7017,
      "æ©ŁåĻ¨": 7018,
      "æĪĲç«ĭçļĦ": 7019,
      "çķ«å®¶": 7020,
      "äº§çĶŁçļĦ": 7021,
      "éģİç¨ĭä¸Ń": 7022,
      "éĺ¿çĪ¾å·´å°¼äºŀ": 7023,
      "ĠæķĻèĤ²": 7024,
      "Ġç»ıæµİ": 7025,
      "æĺ¯æľĢ": 7026,
      "çĶŁåŃĺ": 7027,
      "éĺĶ": 7028,
      "åħ¨å¹´": 7029,
      "èĤħ": 7030,
      "ä¸ĸçķĮçļĦ": 7031,
      "åį¡æĸ¯": 7032,
      "æŃ»åĪĳ": 7033,
      "å¢ĥåħ§": 7034,
      "Ġ-{": 7035,
      "åįĥå¹´": 7036,
      "éĽ»è¦ĸåĬĩ": 7037,
      "æĸĩçī©ä¿ĿæĬ¤": 7038,
      "ç¬¬äºĮæ¬¡ä¸ĸçķĮå¤§æĪĺ": 7039,
      "ai": 7040,
      "1900": 7041,
      "ä»¥åĮĹ": 7042,
      "æĸĩçļĦ": 7043,
      "éĹ°": 7044,
      "çĲĨçĶ±": 7045,
      "å¹³å£¤": 7046,
      "èĻ«": 7047,
      "ä¸Ńå¤®åĨĽå§Ķ": 7048,
      "æĶ¾åľ¨": 7049,
      "æ±īåŃĹ": 7050,
      "å·¥ç¨ĭå¸«": 7051,
      "ç³»ç»ŁçļĦ": 7052,
      "åĩłä½ķ": 7053,
      "é¼»": 7054,
      "è¿½æ±Ĥ": 7055,
      "æİ¢ç´¢": 7056,
      "éģºåĤ³": 7057,
      "å¥´éļ¶": 7058,
      "çĶĺèĤĥ": 7059,
      "ual": 7060,
      "æĪİ": 7061,
      "äººæīĢ": 7062,
      "éĥ¨éĸĢ": 7063,
      "æĸ¹ä¾¿": 7064,
      "å¥³èĹĿäºº": 7065,
      "ç¶ĵæŃ·": 7066,
      "æ²Ļçļĩ": 7067,
      "æļ¨": 7068,
      "åıĥèĢĥ": 7069,
      "å¡ĶåĪ©": 7070,
      "Ġth": 7071,
      "Ġ1974": 7072,
      "ç¦»åŃĲ": 7073,
      "è¦ıåīĩ": 7074,
      "æµĭéĩı": 7075,
      "çĶŁäº§æĢ»åĢ¼": 7076,
      "åľ¨ä»ĸçļĦ": 7077,
      "çī²": 7078,
      "åĵª": 7079,
      "å°ıæĻĤ": 7080,
      "çĶ¢éļİç´ļ": 7081,
      "æĶ¾å°Ħ": 7082,
      "å¿ĹæĦ¿": 7083,
      "å´Ļ": 7084,
      "åĨľæĿĳ": 7085,
      "æ°¸ä¹ħ": 7086,
      "ä»ĭç»į": 7087,
      "ä¼´ä¾": 7088,
      "åħĥå¸¥": 7089,
      "ust": 7090,
      "Ġed": 7091,
      "äººä¹ĭ": 7092,
      "åĢŃ": 7093,
      "å¾·åħĭ": 7094,
      "èģ¯è»į": 7095,
      "isp": 7096,
      "Ġ1962": 7097,
      "è¦ªçİĭ": 7098,
      "æĶ¹éĿ©å¼ĢæĶ¾": 7099,
      "Ġ1954": 7100,
      "è½½äºº": 7101,
      "Ġfrom": 7102,
      "éį¾": 7103,
      "åĪºåı²": 7104,
      "å¡ŀæĭľçĸĨ": 7105,
      "ST": 7106,
      "Ġæł¹æĵļ": 7107,
      "ä¸įåıĹ": 7108,
      "çĲĨå¿µ": 7109,
      "çī¹çĤ¹": 7110,
      "äºĭæķħ": 7111,
      "æµ·ä¸Ĭ": 7112,
      "è«¡": 7113,
      "æł¼èĺŃ": 7114,
      "åĽŀçŃĶ": 7115,
      "é§ķ": 7116,
      "ç§ĢåĲī": 7117,
      "ah": 7118,
      "æĺ¯ä¸º": 7119,
      "æľīäºĨ": 7120,
      "å¾·èı¯": 7121,
      "å°Ķçī¹": 7122,
      "åł¤": 7123,
      "å°ıé¾į": 7124,
      "æĴ«": 7125,
      "æ¿ĥ": 7126,
      "åħ¶ä»ĸçļĦ": 7127,
      "ä¸»ä¹īçļĦ": 7128,
      "1943": 7129,
      "ä¸Ńå¿ĥçļĦ": 7130,
      "1974": 7131,
      "æ§ĭæĪĲ": 7132,
      "Ġ1964": 7133,
      "æľ±å¾·": 7134,
      "è¯ºèİİ": 7135,
      "ight": 7136,
      "å¸¸åĬ¡å§Ķåĳĺä¼ļ": 7137,
      "Ġç¬¬ä¸Ģ": 7138,
      "åľ¨æĹ¥æľ¬": 7139,
      "åľ°éĿ¢": 7140,
      "ç½°": 7141,
      "éĤģ": 7142,
      "éĢļè½¦": 7143,
      "èµ·ç¾©": 7144,
      "é«ĶåĪ¶": 7145,
      "åħ³æ³¨": 7146,
      "èĹıæĹı": 7147,
      "çªģçĦ¶": 7148,
      "ä¼¼ä¹İ": 7149,
      "ä¾µçķ¥": 7150,
      "çĥŃå¸¦": 7151,
      "åį±æ©Ł": 7152,
      "å¥¥æĸ¯æĽ¼": 7153,
      "cri": 7154,
      "ox": 7155,
      "âĨ": 7156,
      "çļĦæŃ·åı²": 7157,
      "æĺ¯æľī": 7158,
      "éĺ®": 7159,
      "å§ĳ": 7160,
      "èµĲ": 7161,
      "æķĻå¾Ĵ": 7162,
      "å¯¹æŃ¤": 7163,
      "æĵ¦": 7164,
      "ç±³å°Ķ": 7165,
      "åĤ³èªª": 7166,
      "èĦĬ": 7167,
      "æĶ¶éĽĨ": 7168,
      "æĪĲç«ĭäºĨ": 7169,
      "éħįåĲĪ": 7170,
      "è¯ĹæŃĮ": 7171,
      "æµĻæ±Łçľģ": 7172,
      "æĸ¯å®¾è¯ºèİİ": 7173,
      "ey": 7174,
      "ix": 7175,
      "çļĦå¤ļ": 7176,
      "ä¸Ńæµ·": 7177,
      "åħ³éĶ®": 7178,
      "åī¯æĢ»çĲĨ": 7179,
      "éĢłæĪĲçļĦ": 7180,
      "ä»ĭçŁ³": 7181,
      "å¤ªå¹³å¤©": 7182,
      "æĭ¿çł´ä»ĳ": 7183,
      "èª²ç¨ĭ": 7184,
      "\"|": 7185,
      "å½Į": 7186,
      "æķĻå¸Ī": 7187,
      "ç½·": 7188,
      "æĢ§è¡ĮçĤº": 7189,
      "éĩįçļĦ": 7190,
      "å±±åľ°": 7191,
      "äº¤éŁ¿": 7192,
      "æľ¨æĺŁ": 7193,
      "éĻ¸çºĮ": 7194,
      "éĨ«çĶŁ": 7195,
      "æķ£æĸĩ": 7196,
      "èįīæ¡Ī": 7197,
      "çĲ³å¨ľ": 7198,
      "rit": 7199,
      "te": 7200,
      "Ġ)": 7201,
      "ĠçĻ½": 7202,
      "æĺ¯ä¸ĸçķĮä¸Ĭ": 7203,
      "æ°¯": 7204,
      "1919": 7205,
      "æĶ¿åħļ": 7206,
      "åįĹæµ·": 7207,
      "ç¥Ĳ": 7208,
      "æĮĩç¤º": 7209,
      "ç²Ĺ": 7210,
      "ç²®é£Ł": 7211,
      "orm": 7212,
      "æĹłäº§éĺ¶çº§": 7213,
      "ç¥ĸçĪ¶": 7214,
      "æ¬§çĽŁ": 7215,
      "Ġ1965": 7216,
      "éłħçĽ®": 7217,
      "å§ĵæ°ı": 7218,
      "çī¹åĪ¥æĺ¯": 7219,
      "è¡įçĶŁ": 7220,
      "Ġä¸İ": 7221,
      "åľ¨éĤ£": 7222,
      "ä¸Ģæĸ¹éĿ¢": 7223,
      "ä¹ĭæĦı": 7224,
      "åĲİèĢħ": 7225,
      "å¤©åłĤ": 7226,
      "å£¯": 7227,
      "å¹³å®ļ": 7228,
      "åĽĽä¸ĸ": 7229,
      "ç²¤": 7230,
      "ç¼ħ": 7231,
      "éĽ·éĶĭ": 7232,
      "Ġ1961": 7233,
      "å¥§éģĭ": 7234,
      "èĸ©æĸ¯": 7235,
      "éĽ»è¦ĸåı°": 7236,
      "åĮħåĲ«äºĨ": 7237,
      "åĽ½æ°ĳæĶ¿åºľ": 7238,
      "æĶĿå½±": 7239,
      "Ġä¸Ĭ": 7240,
      "åŃ¸æľĥ": 7241,
      "æĵ¾": 7242,
      "æĿ±è¥¿": 7243,
      "æĽ´å¤ļçļĦ": 7244,
      "ç»Ħå»º": 7245,
      "å¢ŀéķ·": 7246,
      "æľ¨é½Ĳ": 7247,
      "ç¼ĸè¯ĳ": 7248,
      "çľ¾å¤ļ": 7249,
      "åįĶå®ļ": 7250,
      "Ġ1958": 7251,
      "Ġ1937": 7252,
      "ä¼°è®¡": 7253,
      "æĺĨæĺİ": 7254,
      "ä¹Įé²ģæľ¨é½Ĳ": 7255,
      "å¤§è¿ŀ": 7256,
      "æĪĲæľ¬": 7257,
      "âĢĿ;": 7258,
      "åĮĹä¼Ĳ": 7259,
      "å¤©åŃĲ": 7260,
      "æĦıæĢĿ": 7261,
      "æ¸ħæ¥ļ": 7262,
      "æĿ±éĥ¨": 7263,
      "æķ¸åŃĹ": 7264,
      "ä»¤äºº": 7265,
      "ç§»åĭķ": 7266,
      "è¯įæ±ĩ": 7267,
      "iki": 7268,
      "æĤīå°¼": 7269,
      "å¸¸ä½ıäººåı£": 7270,
      "åħ¶å¯¦": 7271,
      "é«ĺä¸Ń": 7272,
      "å·²è¢«": 7273,
      "é¦Ļæ¸¯æ¼Ķåĵ¡": 7274,
      "å®£åĤ³": 7275,
      "åı·çº¿": 7276,
      "å¹²æ¶ī": 7277,
      "Ġ1946": 7278,
      "å¤©æĸĩåŃ¸": 7279,
      "é³³": 7280,
      "ython": 7281,
      "SE": 7282,
      "çļĦæīĢæľī": 7283,
      "çļĦéĹ®é¢ĺ": 7284,
      "æ²ª": 7285,
      "åľ°è´¨": 7286,
      "çĶ¨ä»¥": 7287,
      "è¾ī": 7288,
      "èĭĳ": 7289,
      "ä¸ĭäºĨ": 7290,
      "åħīç»ª": 7291,
      "éĿĴæµ·": 7292,
      "éĨ£": 7293,
      "ä½Ļäºº": 7294,
      "åħħåĪĨ": 7295,
      "ĠåĬī": 7296,
      "çļĦæĥħ": 7297,
      "ç¾İçĶŁ": 7298,
      "åĨħéĺģ": 7299,
      "ä¸ĸçķĮè¯Ń": 7300,
      "éģĭä½ľ": 7301,
      "åŁĥå°Ķ": 7302,
      "æħĭåº¦": 7303,
      "é¸¡": 7304,
      "æīĢåľ¨åľ°": 7305,
      "è®Ńç»ĥ": 7306,
      "ä½ľæ¥Ńç³»çµ±": 7307,
      "ĠÃ": 7308,
      "çļĦçĶŁæ´»": 7309,
      "ä¸Ģéĥ¨": 7310,
      "æĸĩå¸Ŀ": 7311,
      "âĢĿ)": 7312,
      "è¥¿åĳ¨": 7313,
      "åĬłéĢŁ": 7314,
      "æ¬¡äºİ": 7315,
      "å¹¶éĿŀ": 7316,
      "éĽĨä½ĵ": 7317,
      "èĢģåŃĲ": 7318,
      "}-,": 7319,
      "ä¾¿æĺ¯": 7320,
      "able": 7321,
      "æĿ±åįĹäºŀ": 7322,
      "åĵ¥ä¼¦æ¯Ķäºļ": 7323,
      "æĸĩçī©ä¿ĿæĬ¤åįķä½į": 7324,
      "èĩªæŃ¤": 7325,
      "æĮĤ": 7326,
      "åĬłå¼·": 7327,
      "æıĲç¤º": 7328,
      "å¹¶æľª": 7329,
      "çİĩä¸º": 7330,
      "ç»´åŁº": 7331,
      "èĩ´åĬĽ": 7332,
      "æĤ¼": 7333,
      "æĻ¯åĮº": 7334,
      "åīµè¾¦": 7335,
      "åĮ»çĸĹ": 7336,
      "ç¹ĶçĶ°": 7337,
      "çĬ¶åĨµ": 7338,
      "æįŁå¤±": 7339,
      "BM": 7340,
      "SA": 7341,
      "ĠåĽ½éĻħ": 7342,
      "çļĦåŃĺåľ¨": 7343,
      "1914": 7344,
      "åľĭèªŀ": 7345,
      "åħ¬çº¦": 7346,
      "æ´¾åĩº": 7347,
      "ç»ĦåĲĪ": 7348,
      "è«ĸæĸĩ": 7349,
      "ä¸ĸçºªåĪĿ": 7350,
      "åĺĹ": 7351,
      "ç¼ĸçłģ": 7352,
      "åĦªåĭ¢": 7353,
      "å°Ĭéĩį": 7354,
      "èĤ¡ä»½": 7355,
      "ä¸įå¾Ĺä¸į": 7356,
      "å¹´è½»": 7357,
      "åľĭè»į": 7358,
      "å¿Ļ": 7359,
      "å¤©èĬ±": 7360,
      "å°įæĩī": 7361,
      "æģ¨": 7362,
      "æł¼æĸ¯": 7363,
      "èįĬ": 7364,
      "are": 7365,
      "åħ©èĢħ": 7366,
      "æŃ»å¾Į": 7367,
      "ath": 7368,
      "ä¼łè¯´": 7369,
      "é¡ŀåŀĭ": 7370,
      "æ´Ľä¼Ĭ": 7371,
      "1964": 7372,
      "æ£®åł¡": 7373,
      "æķĪçİĩ": 7374,
      "ç¶²çµ¡": 7375,
      "åŁºæľ¬æ³ķ": 7376,
      "æĻºæħ§": 7377,
      "åĨĽäºĭå§Ķåĳĺä¼ļ": 7378,
      "åĪĨå¸ĥåľ¨": 7379,
      "Ġä¸Ńèı¯æ°ĳåľĭ": 7380,
      "æĭĸ": 7381,
      "åŃ¦ä¼ļ": 7382,
      "çī¹å®ļçļĦ": 7383,
      "çĽ¸ç»§": 7384,
      "æĺİä»£": 7385,
      "å°įè±¡": 7386,
      "åģ·": 7387,
      "ç¶ĵé©Ĺ": 7388,
      "æ¡Į": 7389,
      "å¨¶": 7390,
      "åĻ´": 7391,
      "ç¨®æĹı": 7392,
      "Ġ2023": 7393,
      "ict": 7394,
      "çĴĥ": 7395,
      "å£°æĺİ": 7396,
      "ys": 7397,
      "ĠæŀĹ": 7398,
      "ĠåĶĲ": 7399,
      "çļĦéĩį": 7400,
      "çļĦä¸Ńå¿ĥ": 7401,
      "ä¸Ńç¾İ": 7402,
      "å¤§åĬĽ": 7403,
      "1926": 7404,
      "åĩºæĿ¥": 7405,
      "èĩªä¸»": 7406,
      "åĪ©æĸ¯": 7407,
      "å°įæŃ¤": 7408,
      "åĸ»": 7409,
      "æĹłç¥ŀè®º": 7410,
      "å¨ģçĪ¾": 7411,
      "åħ¬åı¸çļĦ": 7412,
      "1942": 7413,
      "å¤įåħ´": 7414,
      "çī©çĲĨåŃ¦å®¶": 7415,
      "åŃ«çŃĸ": 7416,
      "å»¶å®ī": 7417,
      "èĵĦ": 7418,
      "åĦĢå¼ı": 7419,
      "æĬļé¡º": 7420,
      "éĸ±è®Ģ": 7421,
      "åľŃ": 7422,
      "åĲ¹": 7423,
      "åĽļ": 7424,
      "åĭ¾": 7425,
      "æ²»çĸĹ": 7426,
      "æŃ£æľĪ": 7427,
      "èĮħ": 7428,
      "èªįèŃĺ": 7429,
      "çħĻ": 7430,
      "æ¢Ŀæ¬¾": 7431,
      "Ġ1947": 7432,
      "å¥ıæĽ²": 7433,
      "èİ·å¾ĹäºĨ": 7434,
      "äº§çĶŁäºĨ": 7435,
      "æģĴæ²³": 7436,
      "Ġæµ·": 7437,
      "çļĦæľĢé«ĺ": 7438,
      "ä¼Ļ": 7439,
      "æī°": 7440,
      "å¯¸": 7441,
      "æ³ķè¥¿æĸ¯": 7442,
      "æľĥåĵ¡": 7443,
      "çģ¯": 7444,
      "èĳĹçļĦ": 7445,
      "æ¸ħæľ«": 7446,
      "è¿Ĳä¼ļ": 7447,
      "ç»ĦæĪĲçļĦ": 7448,
      "ç¦ıå°Ķ": 7449,
      "åĲīä»ĸ": 7450,
      "è¯·æ±Ĥ": 7451,
      "è¢ģä¸ĸ": 7452,
      "Ġä¸»è¦ģ": 7453,
      "Ġæ¸ħæľĿ": 7454,
      "çļĦä½ľçĶ¨": 7455,
      "æ´ģ": 7456,
      "ä»ĸä¹Ł": 7457,
      "æĸ¹çļĦ": 7458,
      "æľĢçĤº": 7459,
      "äºĭä¸ļ": 7460,
      "åĬłæĭī": 7461,
      "ä¸Ńåľĭåľĭæ°ĳé»¨": 7462,
      "ä¸Ńå¤®äººæ°ĳæĶ¿åºľ": 7463,
      "èªªæĺİ": 7464,
      "éĻ¤æŃ¤": 7465,
      "å¯¼æ¼Ķ": 7466,
      "çĨĶ": 7467,
      "Ġ180": 7468,
      "å¸¦æĿ¥": 7469,
      "çĽ¸å¯¹è®º": 7470,
      "å®Įæķ´çļĦ": 7471,
      "å£®æĹı": 7472,
      "çĶŁèĤ²": 7473,
      "å¤ļç¨®": 7474,
      "æ¼³": 7475,
      "äºĭçī©": 7476,
      "å°ıç»Ħ": 7477,
      "èĹ»": 7478,
      "åıįæĬĹ": 7479,
      "æ¶Ĥ": 7480,
      "çłĶç©¶ä¸Ńå¿ĥ": 7481,
      "ç®¡è½Ħ": 7482,
      "ç¦ıåĪ©": 7483,
      "ä»£è¡¨å¤§æľĥ": 7484,
      "Ġ1956": 7485,
      "æŁĵèī²": 7486,
      "å±±èĦĪ": 7487,
      "å¿½å¿ħ": 7488,
      "700": 7489,
      "Ġç¬¬äºĮ": 7490,
      "åŃķ": 7491,
      "åĪ°éģĶ": 7492,
      "åĲĦçľģ": 7493,
      "æĮĩå®ļ": 7494,
      "ä¼¯æł¼": 7495,
      "ĠCl": 7496,
      "ä¾ĿéĿł": 7497,
      "åįıå®ļ": 7498,
      "SI": 7499,
      "Ġy": 7500,
      "åľ¨ä¸Ĭæµ·": 7501,
      "1911": 7502,
      "æľīåı¯èĥ½": 7503,
      "çŃīçļĦ": 7504,
      "æĥĬ": 7505,
      "èī·": 7506,
      "éģĵçļĦ": 7507,
      "çįµ": 7508,
      "èģĶåĨĽ": 7509,
      "ica": 7510,
      "æ°£é«Ķ": 7511,
      "åĽ½éĻħæľºåľº": 7512,
      "ĠDe": 7513,
      "è¿«å®³": 7514,
      "ç¶ľåĲĪ": 7515,
      "éĺ¿å§Ĩæĸ¯çī¹": 7516,
      "ä¸Ńç«ĭ": 7517,
      "æĪĲçĨŁ": 7518,
      "éļ§": 7519,
      "èĪĩåħ¶ä»ĸ": 7520,
      "å°ıæıĲçĲ´": 7521,
      "äºĶåĽĽ": 7522,
      "æ³¢ç¾ħ": 7523,
      "æĶ»åįł": 7524,
      "èĵ®": 7525,
      "èį£èªī": 7526,
      "åŁ¹åħ»": 7527,
      "è·¯æĺĵæĸ¯": 7528,
      "%)": 7529,
      "Al": 7530,
      "Ġä¸ĭ": 7531,
      "ä¸ĢçĶŁ": 7532,
      "åĭŁ": 7533,
      "è´ı": 7534,
      "åħĭçļĦ": 7535,
      "å¼ĢæĻ®åĭĴ": 7536,
      "åĳ¨çĳľ": 7537,
      "ç»ĵå©ļ": 7538,
      "ä¸»ä¹īèĢħ": 7539,
      "ç¤¾ä¼ļåŃ¦": 7540,
      "éĻĦå±ŀ": 7541,
      "æĻļå¹´": 7542,
      "ç§ģç«ĭ": 7543,
      "æ»ħçµķ": 7544,
      "æªĶæ¡Ī": 7545,
      "éĩĮå£«å¤ļå¾·": 7546,
      "Ġèĥ¡": 7547,
      "çļĦä¸ĸçķĮ": 7548,
      "æĹ¥èĢ³": 7549,
      "ç½¢": 7550,
      "åĬłåĪ©": 7551,
      "å°Ķåħ°": 7552,
      "çĽ´è¾ĸ": 7553,
      "ä»İæŃ¤": 7554,
      "çĻ¾èĲ¬": 7555,
      "ĠCol": 7556,
      "æ¯ıå¤©": 7557,
      "Ġ1957": 7558,
      "å«©": 7559,
      "åłħæĮģ": 7560,
      "(ãĢĬ": 7561,
      "land": 7562,
      "äººæ¬Ĭ": 7563,
      "ä¸īæ¬¡": 7564,
      "ç¦ħ": 7565,
      "å°±ä»»": 7566,
      "æĢ»çĿ£": 7567,
      "å¨ĥ": 7568,
      "çĶµèĦĳ": 7569,
      "æ½Ķ": 7570,
      "åĺĽ": 7571,
      "æ±ºèŃ°": 7572,
      "æ²¿çĶ¨": 7573,
      "è¿«ä½¿": 7574,
      "å¡ĶåĪ©çıŃ": 7575,
      "cript": 7576,
      "ug": 7577,
      "Ġå¼ķçĶ¨": 7578,
      "çļĦæŃ£": 7579,
      "ä¸Ģå®¶": 7580,
      "ä¹ĭçĤº": 7581,
      "æ³ķä»¤": 7582,
      "ä¸ªåİ¿": 7583,
      "æ²»çĲĨ": 7584,
      "è½´": 7585,
      "è²§": 7586,
      "èĭ±è»į": 7587,
      "æĭ¿çł´å´Ļ": 7588,
      "son": 7589,
      "Ġæĺ¯": 7590,
      "èĢĲ": 7591,
      "å¼ĵ": 7592,
      "å½°": 7593,
      "æ³ķè¯Ń": 7594,
      "åįĹéĿŀ": 7595,
      "å¾Įä¸ĸ": 7596,
      "äºĭæ¥Ń": 7597,
      "è¯Ńç³»": 7598,
      "éĸĵçļĦ": 7599,
      "æĽ¸å¯«": 7600,
      "èĢĥæħ®": 7601,
      "æ°Ķä½ĵ": 7602,
      "é»ĥéĩĳ": 7603,
      "è¾¦åħ¬": 7604,
      "ä¸Ļ": 7605,
      "åĬĳ": 7606,
      "å½Ĺ": 7607,
      "çĶŁæķĪ": 7608,
      "æĬĵ": 7609,
      "åĲĮæ²»": 7610,
      "ç¾İæľ¯": 7611,
      "æµ·å³½": 7612,
      "æł¼é²ģ": 7613,
      "åıįèĢĮ": 7614,
      "åĽ½å®¶ä¸»å¸Ń": 7615,
      "140": 7616,
      "å¾©èĪĪ": 7617,
      "æĴ¤éĢĢ": 7618,
      "çĶ»å®¶": 7619,
      "ä¿ĥä½¿": 7620,
      "èįĢåŃĲ": 7621,
      "æĹ¥èĢ³æĽ¼": 7622,
      "ĠèĢĮ": 7623,
      "ĠäºĮ": 7624,
      "çļĦç¥ŀ": 7625,
      "åľ°ä¸Ńæµ·": 7626,
      "äºĨä¸ĢäºĽ": 7627,
      "åįĹä¸ĭ": 7628,
      "éłĹ": 7629,
      "å°įæĬĹ": 7630,
      "è®¾æľī": 7631,
      "ä¸ĩåĲ¨": 7632,
      "è¿ĳå¹³": 7633,
      "çĻ½èī²": 7634,
      "åı¦ä¸Ģä¸ª": 7635,
      "å¯«ä½ľ": 7636,
      "ä¸Ńèı¯æ°ĳåľĭæĶ¿åºľ": 7637,
      "åľ°çĲĥçļĦ": 7638,
      "çĭĢæ³ģ": 7639,
      "æ±½è»Ĭ": 7640,
      "ç¨ĭåº¦ä¸Ĭ": 7641,
      "éĦĤåľĸ": 7642,
      "éĤıè¼¯": 7643,
      "âĨĴ": 7644,
      "æĪļ": 7645,
      "éĢ¢": 7646,
      "æĪĲéķ·": 7647,
      "ä¹ĭå¥³": 7648,
      "éĺľ": 7649,
      "è¢«èªįçĤºæĺ¯": 7650,
      "éķ¿åº¦": 7651,
      "åģ½": 7652,
      "ç·¬": 7653,
      "éºŁ": 7654,
      "çµĦæĪĲçļĦ": 7655,
      "è§ĦèĮĥ": 7656,
      "é»Ħéĩĳ": 7657,
      "ç»ĨèıĮ": 7658,
      "ä»ªå¼ı": 7659,
      "çļĦåĪĨ": 7660,
      "å¹´éĸĭå§ĭ": 7661,
      "åĴĮå¤§": 7662,
      "äºĨä»ĸ": 7663,
      "ä¸īæľĪ": 7664,
      "èĬĴ": 7665,
      "åĲĦç±»": 7666,
      "åıĺå¾Ĺ": 7667,
      "æ½°": 7668,
      "å¼·çĥĪ": 7669,
      "æĲĸ": 7670,
      "æ¾³éĹ¨": 7671,
      "ä¾µçĬ¯": 7672,
      "åŃĻä¸Ńå±±": 7673,
      "éŀħ": 7674,
      "ä¿±ä¹Ĳ": 7675,
      "è¯ŀçĶŁ": 7676,
      "å¸ľ": 7677,
      "äººåıĹ": 7678,
      "åĨķ": 7679,
      "ä¹ĭä¸Ĭ": 7680,
      "èµ¢": 7681,
      "åħ¨ä½ĵ": 7682,
      "å¨ĺ": 7683,
      "å®ĺè¯Ŀ": 7684,
      "çĶ·å¥³": 7685,
      "è§Ģå¿µ": 7686,
      "å°ĪéĸĢ": 7687,
      "åģĩè¨Ń": 7688,
      "raph": 7689,
      "è¾ĵåħ¥": 7690,
      "å°Ŀè¯ķ": 7691,
      "PDF": 7692,
      "yst": 7693,
      "1913": 7694,
      "ä¹ĭä¸º": 7695,
      "æĸĩèīº": 7696,
      "æ¸Ĭ": 7697,
      "æ¼ı": 7698,
      "éĥ½ä¸į": 7699,
      "çĻ¼éģĶ": 7700,
      "å¥³çľŁ": 7701,
      "æĦıä¸º": 7702,
      "æĦıè§ģ": 7703,
      "æ¸ħæĶ¿åºľ": 7704,
      "ä¿¡å¥ī": 7705,
      "å°ĳå¥³": 7706,
      "è¿Ĳæ²³": 7707,
      "åĽŀæĹı": 7708,
      "åıĪæľī": 7709,
      "åıĺæĪĲ": 7710,
      "ãĢĭ(),": 7711,
      "æĬĹä½ĵ": 7712,
      "éĨĴ": 7713,
      "Ġ1959": 7714,
      "éİĸ": 7715,
      "åĪºæ¿Ģ": 7716,
      "ä¼ģæ¥Ńå®¶": 7717,
      "Ġstyle": 7718,
      "çĻ¾åĪĨçĤ¹": 7719,
      "ç¯®çĲĥ": 7720,
      "Th": 7721,
      "Ġç§¦": 7722,
      "éģŀ": 7723,
      "ä¸»åĬĽ": 7724,
      "æĶ¿åıĺ": 7725,
      "çī¹åĮº": 7726,
      "æĿ¥è¶Ĭ": 7727,
      "äº§éĩı": 7728,
      "æ¶Į": 7729,
      "è®°èĢħ": 7730,
      "ç¶Ńå¥ĩ": 7731,
      "å¢ŀåĬłäºĨ": 7732,
      "å¤ªéĻ½ç³»": 7733,
      "æĬµéģĶ": 7734,
      "æī©å¼ł": 7735,
      "é³´": 7736,
      "æŁ³å·ŀ": 7737,
      "å°ıèªªå®¶": 7738,
      "çĲĨæŁ¥å¾·": 7739,
      "æĤłä¹ħ": 7740,
      "ä¼ª": 7741,
      "äºĭè®°": 7742,
      "ç§ĳè¥¿": 7743,
      "æŁ¬": 7744,
      "æĽ´ä¸º": 7745,
      "åį³æĺ¯": 7746,
      "ç¢°": 7747,
      "è¶ĬæĿ¥è¶Ĭ": 7748,
      "åºĶå½ĵ": 7749,
      "æĽ¼è°·": 7750,
      "èĴĻåı¤æĹı": 7751,
      "ç»Ħç»ĩçļĦ": 7752,
      "ä¼ļè®®ä¸Ĭ": 7753,
      "çĪ±å°Ķåħ°": 7754,
      "è»Łä»¶": 7755,
      "æ²³åįĹçľģ": 7756,
      "éĤĢè¯·": 7757,
      "éĸ©åįĹèªŀ": 7758,
      "ĠÐ": 7759,
      "å¹´æĻĤ": 7760,
      "ä¸ĸä»£": 7761,
      "ä¸ªçĻ¾åĪĨçĤ¹": 7762,
      "åĿĤ": 7763,
      "æ·ĳ": 7764,
      "ä¿¡åı·": 7765,
      "åįİäºº": 7766,
      "éĿŀæ³ķ": 7767,
      "åıĸåĲĳ": 7768,
      "æĩ¿": 7769,
      "ide": 7770,
      "æĦĽåĽłæĸ¯åĿ¦": 7771,
      "ä»ħæ¬¡äºİ": 7772,
      "éĤĬçķĮ": 7773,
      "çĶ³è¯·": 7774,
      "æ¡ĤæŀĹ": 7775,
      "çķ¢æ¥Ń": 7776,
      "å¯Ĩè¥¿æł¹": 7777,
      "AT": 7778,
      "Ġ>": 7779,
      "ĠåĪĺ": 7780,
      "çļĦåİŁ": 7781,
      "çī¹åįĢ": 7782,
      "éĤ¯": 7783,
      "æ®¼": 7784,
      "æŃ¦åĬĽ": 7785,
      "ç½Ĺä¼¯çī¹": 7786,
      "èŃ°é¡Į": 7787,
      "éŃģ": 7788,
      "æĥ³æ³ķ": 7789,
      "åĲīçĪ¾": 7790,
      "åĭĴæĸ¯åĿ¦": 7791,
      "æĨĳ": 7792,
      "urn": 7793,
      "é¸Ł": 7794,
      "åħĥå¸ħ": 7795,
      "GNU": 7796,
      "ãĢĤ)": 7797,
      "ä¸ŃæŃ£": 7798,
      "ä¸Ģçº§": 7799,
      "åĮł": 7800,
      "åıĬåħ¶ä»ĸ": 7801,
      "ç©·": 7802,
      "ç½ļ": 7803,
      "å¤©åľ°": 7804,
      "çŁ®": 7805,
      "éĥ½è¢«": 7806,
      "è½°": 7807,
      "ç§įæĹı": 7808,
      "çĦ¡è«ĸ": 7809,
      "èħ¹": 7810,
      "ä¹ĿæľĪ": 7811,
      "è®¸åı¯": 7812,
      "ç·¨åĬĩ": 7813,
      "è¡ĽçĶŁ": 7814,
      "é¸£": 7815,
      "å¹³æĸ¹ç±³": 7816,
      "Ġäº¤éĢļ": 7817,
      "çļĦèĩªçĶ±": 7818,
      "çļĦå®ĹæķĻ": 7819,
      "çļĦåħ³ç³»": 7820,
      "åľ¨äºİ": 7821,
      "åħ¶åŃĲ": 7822,
      "æ¨ŀ": 7823,
      "åĲĪçĲĨ": 7824,
      "éĢļè®¯": 7825,
      "èĻŀ": 7826,
      "éĺ¿å¡ŀæĭľçĸĨ": 7827,
      "ä¸ĸçķĮåĲĦåľ°": 7828,
      "éķ·åŃĲ": 7829,
      "é©¬æĸ¯": 7830,
      "æĴ²": 7831,
      "åħīç·Ĵ": 7832,
      "æĬĢå·§": 7833,
      "æīĵåĩ»": 7834,
      "å³¶å¶¼": 7835,
      "æĭįæĶĿ": 7836,
      "æµªæ¼«": 7837,
      "å¿½å¿ħçĥĪ": 7838,
      "cal": 7839,
      "Ġåħĥ": 7840,
      "èĩ»": 7841,
      "è¥¿èĺŃ": 7842,
      "èĩªæĿĢ": 7843,
      "é«ĺç´ļ": 7844,
      "åīįèº«": 7845,
      "éĩĳæĹ¥": 7846,
      "äº¤æį¢": 7847,
      "ç§°åĳ¼": 7848,
      "åĳ¨æľŁ": 7849,
      "ĠPl": 7850,
      "è¨ŃåĤĻ": 7851,
      "æĬĹè®®": 7852,
      "èĵ¬": 7853,
      "åħ±çĶ¢ä¸»ç¾©": 7854,
      "éħĴåºĹ": 7855,
      "åĮĹéĥ¨çļĦ": 7856,
      "ç¹ģèį£": 7857,
      "çļĦäººåı£ä¸º": 7858,
      "å¦ĩå¥³": 7859,
      "aw": 7860,
      "ĠåĽĽ": 7861,
      "æĺ¯ä¸Ńåľĭ": 7862,
      "ä¸ºä¸ŃåĽ½": 7863,
      "çĶ¨æĪ¶": 7864,
      "ä¼ļåľ¨": 7865,
      "é»Ľ": 7866,
      "åıĳéŁ³": 7867,
      "çİĭæĺŁ": 7868,
      "é©ļ": 7869,
      "æķ°çļĦ": 7870,
      "åĥĳ": 7871,
      "éķ·å®ĺ": 7872,
      "ä¿Ŀè¯ģ": 7873,
      "å°Ĩé¢Ĩ": 7874,
      "åı¯ä»¥çĶ¨": 7875,
      "æ¸¸è¡Į": 7876,
      "å»£åł´": 7877,
      "æīĵç®Ĺ": 7878,
      "å¸¶ä¾Ĩ": 7879,
      "Ġ1944": 7880,
      "æ¨ĻèªĮ": 7881,
      "æ°§æł¸": 7882,
      "å«Į": 7883,
      "ä¸Ńæĸĩå¤§åŃ¸": 7884,
      "åŁºéĩĳæľĥ": 7885,
      "èĦ«éĽ¢": 7886,
      "éĦĤåľĸæĽ¼": 7887,
      "IT": 7888,
      "ype": 7889,
      "Ġåı°çģ£": 7890,
      "Ġè¨»": 7891,
      "ãĢĤãĢĮ": 7892,
      "åĽ½æŃĮ": 7893,
      "æľīæľº": 7894,
      "ä¸»å°İ": 7895,
      "çºĤ": 7896,
      "æľ¬ç§ĳ": 7897,
      "æīĢéľĢ": 7898,
      "éĢļéģĵ": 7899,
      "çłĤ": 7900,
      "æŃ£æĺ¯": 7901,
      "åı£å²¸": 7902,
      "ç©ºä¸Ń": 7903,
      "å®ŀè·µ": 7904,
      "åľŁå£¤": 7905,
      "åį¡æį·": 7906,
      "åĤ³åħ¥": 7907,
      "åĲīæĸ¯": 7908,
      "æīĵçł´": 7909,
      "æĬĹåİŁ": 7910,
      "é¥¼": 7911,
      "ç¡®ç«ĭ": 7912,
      "å¼ĢåıĳåĮº": 7913,
      "çĲīçĲĥ": 7914,
      "èļĮåŁł": 7915,
      "çļĦæķħäºĭ": 7916,
      "éĽĢ": 7917,
      "åŃ¦è¯´": 7918,
      "åħ¶é¤ĺ": 7919,
      "ä»ĸäºº": 7920,
      "åĲįäºº": 7921,
      "ä¾Ĩè¶Ĭ": 7922,
      "éĽ»è©±": 7923,
      "æĬ¥çº¸": 7924,
      "oci": 7925,
      "éĽĨä¸Ńåľ¨": 7926,
      "åľĭåĭĻéĻ¢": 7927,
      "sh": 7928,
      "çļĦåĬŁèĥ½": 7929,
      "å¤§éģĵ": 7930,
      "åľ°åŁŁ": 7931,
      "ä¸»é¢ĺ": 7932,
      "æºĥ": 7933,
      "å½ĵå¹´": 7934,
      "ick": 7935,
      "çĹħéĢĿ": 7936,
      "åħ¨åĽ½äººæ°ĳä»£è¡¨å¤§ä¼ļ": 7937,
      "æĤ¬": 7938,
      "è½¬ç§»": 7939,
      "åŁºæľ¬ä¸Ĭ": 7940,
      "éģŃéģĩ": 7941,
      "åįģäºĮæľĪ": 7942,
      "span": 7943,
      "âĪĴ": 7944,
      "UR": 7945,
      "ĠåĵĪ": 7946,
      "Ġå®ĭ": 7947,
      "ä¸įæ»¡": 7948,
      "æµĵ": 7949,
      "åħ¶ä½Ļ": 7950,
      "ä¸ĭåįĪ": 7951,
      "æĸ°åĮº": 7952,
      "æĥ¨": 7953,
      "æĶ¹ç·¨": 7954,
      "one": 7955,
      "çľģä¼ļ": 7956,
      "çķ¶å¹´": 7957,
      "åĢĻéĢī": 7958,
      "èģ²éŁ³": 7959,
      "åĨ¬èĩ³": 7960,
      "åįıåĴĮé£ŀæľº": 7961,
      "äº¤éŁ¿æĽ²": 7962,
      "æľīåĪ©": 7963,
      "çĤºä¸Ģ": 7964,
      "æĸĩä¸Ń": 7965,
      "ä»ĸè¿ĺ": 7966,
      "èĩªåĭķ": 7967,
      "é«ĺéŁ³": 7968,
      "éĩĳæŃ£": 7969,
      "åĽĽåĢĭ": 7970,
      "å½¢çļĦ": 7971,
      "ä¿Ŀç¾ħ": 7972,
      "ç§įæ¤į": 7973,
      "çļĦä¸Ģç¨®": 7974,
      "åįĥäºº": 7975,
      "éħįéŁ³": 7976,
      "ame": 7977,
      "Ġ1952": 7978,
      "å²ģçļĦ": 7979,
      "æŀ¶æ§ĭ": 7980,
      "çĶ¢çĶŁçļĦ": 7981,
      "è¡ĮæĶ¿åįĢåĬĥ": 7982,
      "1924": 7983,
      "çºº": 7984,
      "ä¸Ĭæ¸¸": 7985,
      "åīįä»»": 7986,
      "éĩĳå±±": 7987,
      "çĪ¾å¾·": 7988,
      "èĴ²": 7989,
      "åı¯ä»¥è¢«": 7990,
      "å¾ŀèĢĮ": 7991,
      "ç«łç¨ĭ": 7992,
      "çĶŁçī©åŃ¦": 7993,
      "Ġ1948": 7994,
      "å·®è·Ŀ": 7995,
      "è¾¹çķĮ": 7996,
      "ä»·æł¼": 7997,
      "å±Ĭåħ¨åĽ½æĶ¿åįı": 7998,
      "æ¡Ĩæŀ¶": 7999
    },
    "merges": [
      [
        "ä",
        "¸"
      ],
      [
        "ã",
        "Ģ"
      ],
      [
        "ç",
        "ļ"
      ],
      [
        "çļ",
        "Ħ"
      ],
      [
        "ä",
        "º"
      ],
      [
        "æ",
        "ľ"
      ],
      [
        "ãĢ",
        "Ĥ"
      ],
      [
        "å",
        "ħ"
      ],
      [
        "å",
        "ľ"
      ],
      [
        "å",
        "ı"
      ],
      [
        "å",
        "¤"
      ],
      [
        "å",
        "¹"
      ],
      [
        "ä",
        "»"
      ],
      [
        "å",
        "®"
      ],
      [
        "æ",
        "ĸ"
      ],
      [
        "å¹",
        "´"
      ],
      [
        "å",
        "Ī"
      ],
      [
        "ãĢ",
        "ģ"
      ],
      [
        "å",
        "Ĳ"
      ],
      [
        "ç",
        "Ķ"
      ],
      [
        "å",
        "Ľ"
      ],
      [
        "å",
        "į"
      ],
      [
        "å",
        "Ń"
      ],
      [
        "ä",
        "½"
      ],
      [
        "å",
        "°"
      ],
      [
        "æ",
        "ĺ"
      ],
      [
        "æ",
        "Ĺ"
      ],
      [
        "ä",
        "¹"
      ],
      [
        "ä¸",
        "Ń"
      ],
      [
        "å",
        "¾"
      ],
      [
        "æ",
        "Ī"
      ],
      [
        "åľ",
        "¨"
      ],
      [
        "å",
        "¸"
      ],
      [
        "ä¸",
        "Ģ"
      ],
      [
        "äº",
        "º"
      ],
      [
        "é",
        "Ģ"
      ],
      [
        "å",
        "Į"
      ],
      [
        "â",
        "Ģ"
      ],
      [
        "å¤",
        "§"
      ],
      [
        "è",
        "¿"
      ],
      [
        "å",
        "Ĭ"
      ],
      [
        "æĺ",
        "¯"
      ],
      [
        "æ",
        "Ń"
      ],
      [
        "åĽ",
        "½"
      ],
      [
        "å",
        "Ĵ"
      ],
      [
        "å",
        "·"
      ],
      [
        "æ",
        "Ķ"
      ],
      [
        "åĴ",
        "Į"
      ],
      [
        "æ",
        "°"
      ],
      [
        "1",
        "9"
      ],
      [
        "æľ",
        "ī"
      ],
      [
        "é",
        "ĩ"
      ],
      [
        "è",
        "¡"
      ],
      [
        "ç",
        "ī"
      ],
      [
        "åľ",
        "ĭ"
      ],
      [
        "æ",
        "ķ"
      ],
      [
        "è",
        "Ģ"
      ],
      [
        "ä",
        "¼"
      ],
      [
        "ç",
        "»"
      ],
      [
        "é",
        "ģ"
      ],
      [
        "å",
        "º"
      ],
      [
        "æ",
        "Ŀ"
      ],
      [
        "è",
        "ĩ"
      ],
      [
        "å",
        "¼"
      ],
      [
        "æ",
        "ī"
      ],
      [
        "å",
        "±"
      ],
      [
        "æ",
        "³"
      ],
      [
        "è",
        "®"
      ],
      [
        "é",
        "Ļ"
      ],
      [
        "é",
        "ĥ"
      ],
      [
        "ç",
        "Ĥ"
      ],
      [
        "å",
        "ĩ"
      ],
      [
        "å",
        "Ĩ"
      ],
      [
        "ç",
        "§"
      ],
      [
        "ç",
        "Ľ"
      ],
      [
        "ä»",
        "¥"
      ],
      [
        "å",
        "¯"
      ],
      [
        "æ",
        "²"
      ],
      [
        "è",
        "¯"
      ],
      [
        "æĹ",
        "¥"
      ],
      [
        "ç",
        "¾"
      ],
      [
        "ä¸",
        "º"
      ],
      [
        "æľ",
        "Ī"
      ],
      [
        "æĪ",
        "Ĳ"
      ],
      [
        "åľ",
        "°"
      ],
      [
        "çĤ",
        "º"
      ],
      [
        "äº",
        "Ĩ"
      ],
      [
        "å",
        "Ł"
      ],
      [
        "ä¸",
        "į"
      ],
      [
        "å",
        "½"
      ],
      [
        "æ",
        "Ģ"
      ],
      [
        "å",
        "¥"
      ],
      [
        "è",
        "Ī"
      ],
      [
        "ç",
        "İ"
      ],
      [
        "å",
        "ī"
      ],
      [
        "æ",
        "Ļ"
      ],
      [
        "é",
        "Ľ"
      ],
      [
        "æ",
        "ĭ"
      ],
      [
        "å®",
        "¶"
      ],
      [
        "å",
        "ĵ"
      ],
      [
        "2",
        "0"
      ],
      [
        "ä¸",
        "»"
      ],
      [
        "æ",
        "µ"
      ],
      [
        "ç",
        "Ĳ"
      ],
      [
        "æ",
        "ł"
      ],
      [
        "é",
        "Ŀ"
      ],
      [
        "ä¹",
        "ĭ"
      ],
      [
        "æ°",
        "ĳ"
      ],
      [
        "çĶ",
        "Ł"
      ],
      [
        "å",
        "İ"
      ],
      [
        "è",
        "¦"
      ],
      [
        "åĩ",
        "º"
      ],
      [
        "æ",
        "Ľ"
      ],
      [
        "ä",
        "¾"
      ],
      [
        "ç",
        "«"
      ],
      [
        "ç",
        "º"
      ],
      [
        "ä¸",
        "Ĭ"
      ],
      [
        "æ",
        "´"
      ],
      [
        "å",
        "ĳ"
      ],
      [
        "ä",
        "¿"
      ],
      [
        "ãĢ",
        "ĭ"
      ],
      [
        "ãĢ",
        "Ĭ"
      ],
      [
        "æĸ",
        "¯"
      ],
      [
        "æĸ",
        "ĩ"
      ],
      [
        "æĶ",
        "¿"
      ],
      [
        "ç",
        "ķ"
      ],
      [
        "åŃ",
        "¦"
      ],
      [
        "å",
        "Ģ"
      ],
      [
        "ç",
        "´"
      ],
      [
        "æ³",
        "ķ"
      ],
      [
        "ç",
        "Ń"
      ],
      [
        "æ",
        "¸"
      ],
      [
        "Â",
        "·"
      ],
      [
        "è",
        "¨"
      ],
      [
        "å",
        "»"
      ],
      [
        "åħ",
        "¶"
      ],
      [
        "ä½",
        "ľ"
      ],
      [
        "ç",
        "¨"
      ],
      [
        "é",
        "«"
      ],
      [
        "è¡",
        "Į"
      ],
      [
        "ç",
        "Ļ"
      ],
      [
        "ä¸",
        "ĸ"
      ],
      [
        "è",
        "§"
      ],
      [
        "æ",
        "İ"
      ],
      [
        "æ",
        "¯"
      ],
      [
        "é",
        "¦"
      ],
      [
        "æ",
        "±"
      ],
      [
        "ä»",
        "ĸ"
      ],
      [
        "çĶ",
        "¨"
      ],
      [
        "ç",
        "¬"
      ],
      [
        "é",
        "ĺ"
      ],
      [
        "éĥ",
        "¨"
      ],
      [
        "åĪ",
        "Ĩ"
      ],
      [
        "è",
        "ģ"
      ],
      [
        "è",
        "¥"
      ],
      [
        "å",
        "§"
      ],
      [
        "å",
        "ĭ"
      ],
      [
        "å",
        "¿"
      ],
      [
        "è",
        "µ"
      ],
      [
        "åŃ",
        "¸"
      ],
      [
        "è",
        "ĥ"
      ],
      [
        "åŃ",
        "Ĳ"
      ],
      [
        "è",
        "ª"
      ],
      [
        "æ",
        "¬"
      ],
      [
        "èĢ",
        "Į"
      ],
      [
        "æ",
        "Ĭ"
      ],
      [
        "âĢ",
        "ľ"
      ],
      [
        "âĢ",
        "Ŀ"
      ],
      [
        "è¥",
        "¿"
      ],
      [
        "æĸ",
        "¹"
      ],
      [
        "å¤",
        "ļ"
      ],
      [
        "æ",
        "ŀ"
      ],
      [
        "è",
        "¾"
      ],
      [
        "ç",
        "Ī"
      ],
      [
        "ç",
        "µ"
      ],
      [
        "ä»",
        "£"
      ],
      [
        "é",
        "Ĺ"
      ],
      [
        "Ġ",
        "19"
      ],
      [
        "åĪ",
        "°"
      ],
      [
        "èĩ",
        "ª"
      ],
      [
        "ç¬",
        "¬"
      ],
      [
        "è",
        "¢"
      ],
      [
        "äº",
        "İ"
      ],
      [
        "æľ",
        "¬"
      ],
      [
        "åħ",
        "¬"
      ],
      [
        "é",
        "ķ"
      ],
      [
        "åĲ",
        "Į"
      ],
      [
        "ç¾",
        "İ"
      ],
      [
        "è",
        "ĭ"
      ],
      [
        "åį",
        "Ĺ"
      ],
      [
        "é",
        "ĸ"
      ],
      [
        "é",
        "Ł"
      ],
      [
        "çŃ",
        "ī"
      ],
      [
        "é",
        "ļ"
      ],
      [
        "ä¼",
        "ļ"
      ],
      [
        "æĸ",
        "¼"
      ],
      [
        "åı",
        "Ĭ"
      ],
      [
        "æ",
        "Į"
      ],
      [
        "çĲ",
        "Ĩ"
      ],
      [
        "åĮ",
        "ĸ"
      ],
      [
        "çī",
        "©"
      ],
      [
        "å¾",
        "·"
      ],
      [
        "è¢",
        "«"
      ],
      [
        "ä¹",
        "Ł"
      ],
      [
        "æľ",
        "Ģ"
      ],
      [
        "åı",
        "¯"
      ],
      [
        "ç«",
        "ĭ"
      ],
      [
        "åĲ",
        "į"
      ],
      [
        "ç",
        "¤"
      ],
      [
        "æ",
        "¼"
      ],
      [
        "æķ",
        "Ļ"
      ],
      [
        "çĶ",
        "±"
      ],
      [
        "åĲ",
        "İ"
      ],
      [
        "è¦",
        "ģ"
      ],
      [
        "å¸",
        "Ĥ"
      ],
      [
        "è",
        "´"
      ],
      [
        "çī",
        "¹"
      ],
      [
        "æľ",
        "ĥ"
      ],
      [
        "ä¸",
        "ª"
      ],
      [
        "åĮ",
        "Ĺ"
      ],
      [
        "åħ",
        "±"
      ],
      [
        "é",
        "¡"
      ],
      [
        "é",
        "»"
      ],
      [
        "ãĢ",
        "Į"
      ],
      [
        "ãĢ",
        "į"
      ],
      [
        "ç",
        "©"
      ],
      [
        "æĹ",
        "¶"
      ],
      [
        "æĻ",
        "Ĥ"
      ],
      [
        "å®",
        "ļ"
      ],
      [
        "å",
        "¦"
      ],
      [
        "åĪ",
        "©"
      ],
      [
        "åħ",
        "¨"
      ],
      [
        "é«",
        "ĺ"
      ],
      [
        "ä¸",
        "ĭ"
      ],
      [
        "æī",
        "Ģ"
      ],
      [
        "ç",
        "ľ"
      ],
      [
        "åī",
        "į"
      ],
      [
        "ç",
        "¶"
      ],
      [
        "å¾",
        "Į"
      ],
      [
        "ç",
        "½"
      ],
      [
        "ä¸",
        "ī"
      ],
      [
        "è",
        "»"
      ],
      [
        "å¤",
        "©"
      ],
      [
        "æĢ",
        "§"
      ],
      [
        "åħ",
        "ĭ"
      ],
      [
        "æ",
        "Ħ"
      ],
      [
        "èĪ",
        "ĩ"
      ],
      [
        "ç",
        "Ħ"
      ],
      [
        "å¤",
        "ĸ"
      ],
      [
        "æľ",
        "Ł"
      ],
      [
        "æ",
        "ı"
      ],
      [
        "å»",
        "º"
      ],
      [
        "é",
        "Ĥ"
      ],
      [
        "åı",
        "ĳ"
      ],
      [
        "âĢ",
        "Ķ"
      ],
      [
        "èĥ",
        "½"
      ],
      [
        "èĢ",
        "ħ"
      ],
      [
        "æĸ",
        "°"
      ],
      [
        "è¡",
        "¨"
      ],
      [
        "ä½",
        "į"
      ],
      [
        "åĽ",
        "ł"
      ],
      [
        "ç",
        "¥"
      ],
      [
        "æ",
        "¨"
      ],
      [
        "æŃ",
        "¤"
      ],
      [
        "åĲ",
        "Ī"
      ],
      [
        "äº",
        "ĭ"
      ],
      [
        "å",
        "£"
      ],
      [
        "ä½",
        "¿"
      ],
      [
        "æµ",
        "·"
      ],
      [
        "æ²",
        "»"
      ],
      [
        "é",
        "¢"
      ],
      [
        "å·",
        "¥"
      ],
      [
        "åį",
        "ģ"
      ],
      [
        "åĮ",
        "º"
      ],
      [
        "åº",
        "¦"
      ],
      [
        "è",
        "·"
      ],
      [
        "å¾",
        "Ĺ"
      ],
      [
        "1",
        "8"
      ],
      [
        "éĢ",
        "ļ"
      ],
      [
        "ç",
        "Ł"
      ],
      [
        "åĬ",
        "ł"
      ],
      [
        "é",
        "ł"
      ],
      [
        "éĩ",
        "į"
      ],
      [
        "è",
        "¶"
      ],
      [
        "çİ",
        "ĭ"
      ],
      [
        "ç",
        "ģ"
      ],
      [
        "éĥ",
        "½"
      ],
      [
        "åĪ",
        "¶"
      ],
      [
        "ç",
        "±"
      ],
      [
        "ä»",
        "»"
      ],
      [
        "äº",
        "Į"
      ],
      [
        "è",
        "Ń"
      ],
      [
        "æĭ",
        "ī"
      ],
      [
        "è",
        "½"
      ],
      [
        "åŁ",
        "º"
      ],
      [
        "å",
        "Ŀ"
      ],
      [
        "å°",
        "Ķ"
      ],
      [
        "ç",
        "ı"
      ],
      [
        "å·",
        "ŀ"
      ],
      [
        "èĩ",
        "³"
      ],
      [
        "æ",
        "ĥ"
      ],
      [
        "çĽ",
        "¸"
      ],
      [
        "ç",
        "³"
      ],
      [
        "ä¸",
        "İ"
      ],
      [
        "å¹",
        "³"
      ],
      [
        "è",
        "³"
      ],
      [
        "çĻ",
        "¼"
      ],
      [
        "ä½",
        "Ĩ"
      ],
      [
        "å¯",
        "¹"
      ],
      [
        "åħ",
        "¥"
      ],
      [
        "å¦",
        "Ĥ"
      ],
      [
        "åĬ",
        "Ľ"
      ],
      [
        "è",
        "©"
      ],
      [
        "æĺ",
        "İ"
      ],
      [
        "å±",
        "±"
      ],
      [
        "åħ",
        "ĥ"
      ],
      [
        "æ¬",
        "¡"
      ],
      [
        "ç§",
        "ĳ"
      ],
      [
        "è",
        "ī"
      ],
      [
        "è",
        "Ĳ"
      ],
      [
        "20",
        "0"
      ],
      [
        "åĵ",
        "¡"
      ],
      [
        "åĢ",
        "ĭ"
      ],
      [
        "æ",
        "ĵ"
      ],
      [
        "éĩ",
        "Į"
      ],
      [
        "åĨ",
        "Ľ"
      ],
      [
        "ç",
        "®"
      ],
      [
        "éĿ",
        "¢"
      ],
      [
        "è",
        "ĳ"
      ],
      [
        "æľ",
        "Ŀ"
      ],
      [
        "åı",
        "²"
      ],
      [
        "åİ",
        "Ł"
      ],
      [
        "å¼",
        "ı"
      ],
      [
        "è¿",
        "Ļ"
      ],
      [
        "ç",
        "¦"
      ],
      [
        "å",
        "ł"
      ],
      [
        "è",
        "²"
      ],
      [
        "è»",
        "į"
      ],
      [
        "ä¸Ń",
        "åĽ½"
      ],
      [
        "æ",
        "¥"
      ],
      [
        "1",
        "0"
      ],
      [
        "å",
        "¢"
      ],
      [
        "èĭ",
        "±"
      ],
      [
        "æ",
        "Ł"
      ],
      [
        "ç³",
        "»"
      ],
      [
        "å°",
        "į"
      ],
      [
        "æĿ",
        "¥"
      ],
      [
        "éĻ",
        "¢"
      ],
      [
        "éģ",
        "ĵ"
      ],
      [
        "è",
        "£"
      ],
      [
        "ç",
        "ł"
      ],
      [
        ")",
        ","
      ],
      [
        "åŁ",
        "İ"
      ],
      [
        "è",
        "Ĥ"
      ],
      [
        "éĩ",
        "ı"
      ],
      [
        "å°",
        "ı"
      ],
      [
        "é",
        "©"
      ],
      [
        "æĹ",
        "ı"
      ],
      [
        "çķ",
        "Į"
      ],
      [
        "è",
        "«"
      ],
      [
        "åº",
        "ľ"
      ],
      [
        "æ",
        "º"
      ],
      [
        "åı",
        "¤"
      ],
      [
        "éķ",
        "¿"
      ],
      [
        "æĪ",
        "ĸ"
      ],
      [
        "æŃ",
        "£"
      ],
      [
        "è",
        "ı"
      ],
      [
        "æ",
        "ģ"
      ],
      [
        "æ¼",
        "Ķ"
      ],
      [
        "éŁ",
        "³"
      ],
      [
        "åı",
        "£"
      ],
      [
        "å¸",
        "¸"
      ],
      [
        "æ¯",
        "Ķ"
      ],
      [
        "ä¸",
        "ľ"
      ],
      [
        "å®",
        "ī"
      ],
      [
        "å¼",
        "Ģ"
      ],
      [
        "åĭ",
        "ķ"
      ],
      [
        "ä¾",
        "Ĩ"
      ],
      [
        "å",
        "Ĥ"
      ],
      [
        "å",
        "ģ"
      ],
      [
        "éĩ",
        "ĳ"
      ],
      [
        "å",
        "ķ"
      ],
      [
        "çĦ",
        "¶"
      ],
      [
        "çĪ",
        "¾"
      ],
      [
        "å¸",
        "Ŀ"
      ],
      [
        "å¤",
        "ª"
      ],
      [
        "e",
        "r"
      ],
      [
        "è",
        "Ļ"
      ],
      [
        "ç»",
        "ı"
      ],
      [
        "ç¤",
        "¾"
      ],
      [
        "èµ",
        "·"
      ],
      [
        "å¸",
        "ĥ"
      ],
      [
        "æı",
        "Ĳ"
      ],
      [
        "ç¨",
        "ĭ"
      ],
      [
        "å¹",
        "¶"
      ],
      [
        "æ",
        "®"
      ],
      [
        "åĽ",
        "Ľ"
      ],
      [
        "è",
        "Ĭ"
      ],
      [
        "å¥",
        "³"
      ],
      [
        "æ°",
        "´"
      ],
      [
        "a",
        "n"
      ],
      [
        "éĢ",
        "Ļ"
      ],
      [
        "é",
        "£"
      ],
      [
        "æł",
        "¼"
      ],
      [
        "è¯",
        "Ń"
      ],
      [
        "è·",
        "¯"
      ],
      [
        "å",
        "²"
      ],
      [
        "i",
        "n"
      ],
      [
        "åı",
        "°"
      ],
      [
        "åĬ",
        "¨"
      ],
      [
        "æĦ",
        "ı"
      ],
      [
        "äº",
        "Ľ"
      ],
      [
        "å°",
        "¼"
      ],
      [
        "é«",
        "Ķ"
      ],
      [
        "å§",
        "ĭ"
      ],
      [
        "å½",
        "±"
      ],
      [
        "çĲ",
        "ĥ"
      ],
      [
        "åį",
        "Ģ"
      ],
      [
        "æķ",
        "°"
      ],
      [
        "åŃ",
        "Ĺ"
      ],
      [
        "ä¸",
        "¦"
      ],
      [
        "éĺ",
        "¿"
      ],
      [
        "å°",
        "±"
      ],
      [
        "çİ",
        "°"
      ],
      [
        "æ¸",
        "¯"
      ],
      [
        "é¦",
        "ĸ"
      ],
      [
        "0",
        "0"
      ],
      [
        "ç¶",
        "ĵ"
      ],
      [
        "åĳ",
        "ĺ"
      ],
      [
        "ä½",
        "ĵ"
      ],
      [
        "åĨ",
        "ħ"
      ],
      [
        "æ",
        "¡"
      ],
      [
        "å¿",
        "ĥ"
      ],
      [
        "å½",
        "¢"
      ],
      [
        "ç",
        "¸"
      ],
      [
        "åĲ",
        "Ħ"
      ],
      [
        "åĪ",
        "Ĺ"
      ],
      [
        "äº",
        "¤"
      ],
      [
        "æŀ",
        "Ĺ"
      ],
      [
        "è",
        "°"
      ],
      [
        "è¿",
        "ĩ"
      ],
      [
        "æĶ",
        "¹"
      ],
      [
        "ç»",
        "Ł"
      ],
      [
        "è",
        "¼"
      ],
      [
        "è",
        "Ĺ"
      ],
      [
        "è",
        "İ"
      ],
      [
        "å±",
        "ķ"
      ],
      [
        "æĶ¿",
        "åºľ"
      ],
      [
        "äºº",
        "æ°ĳ"
      ],
      [
        "ç",
        "į"
      ],
      [
        "å·",
        "´"
      ],
      [
        "æĪ",
        "°"
      ],
      [
        "æ²",
        "³"
      ],
      [
        "è",
        "ĺ"
      ],
      [
        "æİ",
        "¥"
      ],
      [
        "æĪ",
        "ĺ"
      ],
      [
        "å£",
        "«"
      ],
      [
        "o",
        "n"
      ],
      [
        "æ",
        "¢"
      ],
      [
        "1",
        "2"
      ],
      [
        "ä¸Ń",
        "åľĭ"
      ],
      [
        "ä¸",
        "ļ"
      ],
      [
        "å§",
        "Ķ"
      ],
      [
        "çı",
        "¾"
      ],
      [
        "å®",
        "Ĺ"
      ],
      [
        "æĺ",
        "Ł"
      ],
      [
        "è¨",
        "Ģ"
      ],
      [
        "å",
        "ĸ"
      ],
      [
        "å",
        "Ķ"
      ],
      [
        "æ",
        "į"
      ],
      [
        "åĮ",
        "ħ"
      ],
      [
        "æ±",
        "Ł"
      ],
      [
        "åı",
        "Ĺ"
      ],
      [
        "æľ",
        "º"
      ],
      [
        "åĲ",
        "ĳ"
      ],
      [
        "çľ",
        "ģ"
      ],
      [
        "å",
        "¡"
      ],
      [
        "åı",
        "į"
      ],
      [
        "äº",
        "§"
      ],
      [
        "èª",
        "ŀ"
      ],
      [
        "çµ",
        "±"
      ],
      [
        "åĳ",
        "½"
      ],
      [
        "æĹ¥",
        "æľ¬"
      ],
      [
        "äº",
        "ŀ"
      ],
      [
        "éĸ",
        "ĭ"
      ],
      [
        "è¿",
        "Ľ"
      ],
      [
        "æ",
        "»"
      ],
      [
        "äº",
        "ļ"
      ],
      [
        "èĳ",
        "Ĺ"
      ],
      [
        "æ",
        "·"
      ],
      [
        "ç¾",
        "©"
      ],
      [
        "éĽ",
        "»"
      ],
      [
        "ç§",
        "°"
      ],
      [
        "æĢ",
        "»"
      ],
      [
        "æ",
        "¹"
      ],
      [
        "äº",
        "Ķ"
      ],
      [
        "ä¸ĸ",
        "çķĮ"
      ],
      [
        "éģ",
        "İ"
      ],
      [
        "æµ",
        "ģ"
      ],
      [
        "æ¸",
        "ħ"
      ],
      [
        "1",
        "7"
      ],
      [
        "é¦",
        "¬"
      ],
      [
        "æĮ",
        "ģ"
      ],
      [
        "ä¿",
        "¡"
      ],
      [
        "å",
        "ĥ"
      ],
      [
        "æ´",
        "²"
      ],
      [
        "ç¨",
        "±"
      ],
      [
        "åį",
        "İ"
      ],
      [
        "éķ",
        "·"
      ],
      [
        "å·",
        "²"
      ],
      [
        "æĮ",
        "ĩ"
      ],
      [
        "é",
        "ľ"
      ],
      [
        "è",
        "į"
      ],
      [
        "ç¾İ",
        "åľĭ"
      ],
      [
        "ä¿",
        "Ŀ"
      ],
      [
        "æ",
        "©"
      ],
      [
        "é¦",
        "Ļ"
      ],
      [
        "å",
        "Ħ"
      ],
      [
        "1",
        "1"
      ],
      [
        "ç",
        "·"
      ],
      [
        "è§",
        "£"
      ],
      [
        "éĹ",
        "´"
      ],
      [
        "é",
        "ĵ"
      ],
      [
        "å",
        "¨"
      ],
      [
        "çł",
        "Ķ"
      ],
      [
        "æī",
        "ĭ"
      ],
      [
        "æĶ¿",
        "æ²»"
      ],
      [
        "ä»",
        "¶"
      ],
      [
        "çĽ",
        "´"
      ],
      [
        "ç¬¬",
        "ä¸Ģ"
      ],
      [
        "æĿ",
        "±"
      ],
      [
        "çķ",
        "¶"
      ],
      [
        "èı",
        "¯"
      ],
      [
        "ç",
        "Ŀ"
      ],
      [
        "å°",
        "Ĩ"
      ],
      [
        "è",
        "±"
      ],
      [
        "èģ",
        "Ķ"
      ],
      [
        "çĽ",
        "®"
      ],
      [
        "è",
        "Ĵ"
      ],
      [
        "åħ",
        "§"
      ],
      [
        "å®",
        "ĺ"
      ],
      [
        "æ",
        "¶"
      ],
      [
        "ç§",
        "į"
      ],
      [
        "æŃ",
        "¦"
      ],
      [
        "ä¹",
        "ī"
      ],
      [
        "1",
        "6"
      ],
      [
        "å",
        "Ļ"
      ],
      [
        "é©",
        "¬"
      ],
      [
        "å°",
        "ĳ"
      ],
      [
        "ä½¿",
        "çĶ¨"
      ],
      [
        "æķ",
        "¸"
      ],
      [
        "å°",
        "ĩ"
      ],
      [
        "éĸ",
        "ĵ"
      ],
      [
        "æĿ",
        "İ"
      ],
      [
        "åĵ",
        "ģ"
      ],
      [
        "æ",
        "£"
      ],
      [
        "æ",
        "Ĵ"
      ],
      [
        "åı¯",
        "ä»¥"
      ],
      [
        "ç",
        "¯"
      ],
      [
        "é",
        "ħ"
      ],
      [
        "æĽ",
        "´"
      ],
      [
        "æ",
        "ħ"
      ],
      [
        "çļ",
        "ĩ"
      ],
      [
        "éĿ",
        "ŀ"
      ],
      [
        "ç©",
        "¶"
      ],
      [
        "åķ",
        "Ĩ"
      ],
      [
        "å¤",
        "«"
      ],
      [
        "æł",
        "¡"
      ],
      [
        "åı",
        "¸"
      ],
      [
        "åħ",
        "³"
      ],
      [
        "éĽ",
        "Ĩ"
      ],
      [
        "äº",
        "¬"
      ],
      [
        "âĢĶ",
        "âĢĶ"
      ],
      [
        "å½",
        "ĵ"
      ],
      [
        "é¦Ļ",
        "æ¸¯"
      ],
      [
        "1",
        "5"
      ],
      [
        "ç½",
        "Ĺ"
      ],
      [
        "ç",
        "²"
      ],
      [
        "éĢ",
        "ł"
      ],
      [
        "ç",
        "¹"
      ],
      [
        "éĢ",
        "²"
      ],
      [
        "çĶ",
        "µ"
      ],
      [
        "ç©",
        "º"
      ],
      [
        "çłĶ",
        "ç©¶"
      ],
      [
        "åį",
        "³"
      ],
      [
        "çģ",
        "£"
      ],
      [
        "ç¾",
        "ħ"
      ],
      [
        "çī",
        "Ī"
      ],
      [
        "å®",
        "ŀ"
      ],
      [
        "ä¹",
        "¦"
      ],
      [
        ")",
        "ãĢĤ"
      ],
      [
        "åĽ½",
        "å®¶"
      ],
      [
        "ä¸»",
        "è¦ģ"
      ],
      [
        "å",
        "ŀ"
      ],
      [
        "åĳ",
        "¨"
      ],
      [
        "éĿ",
        "©"
      ],
      [
        "æĭ",
        "¬"
      ],
      [
        "ç®",
        "¡"
      ],
      [
        "äºº",
        "åı£"
      ],
      [
        "èī",
        "²"
      ],
      [
        "å®",
        "ĥ"
      ],
      [
        "ç¥",
        "ŀ"
      ],
      [
        "ç¨",
        "®"
      ],
      [
        "æĶ",
        "¯"
      ],
      [
        "å¤",
        "®"
      ],
      [
        "åĻ",
        "¨"
      ],
      [
        "ç¸",
        "½"
      ],
      [
        "æŃ",
        "Į"
      ],
      [
        "ç",
        "¿"
      ],
      [
        "æ",
        "¿"
      ],
      [
        "åľ",
        "Ł"
      ],
      [
        "è¾",
        "¾"
      ],
      [
        "ç¤",
        "º"
      ],
      [
        "ç",
        "ĭ"
      ],
      [
        "ç",
        "Ĺ"
      ],
      [
        "æĸĩ",
        "åĮĸ"
      ],
      [
        "çĶ",
        "¢"
      ],
      [
        "ç",
        "ĸ"
      ],
      [
        "æ©",
        "Ł"
      ],
      [
        "ä¸Ń",
        "å¤®"
      ],
      [
        "ç",
        "ĥ"
      ],
      [
        "éģ",
        "ĭ"
      ],
      [
        "ç",
        "¼"
      ],
      [
        "æĽ",
        "¾"
      ],
      [
        "æ´",
        "»"
      ],
      [
        "ä¾",
        "ĭ"
      ],
      [
        "åı",
        "ĸ"
      ],
      [
        "ç±",
        "³"
      ],
      [
        "ä¼",
        "Ĭ"
      ],
      [
        "ä¸Ģ",
        "ä¸ª"
      ],
      [
        "éĹ",
        "ľ"
      ],
      [
        "è®",
        "¾"
      ],
      [
        "è®",
        "®"
      ],
      [
        "ç¾İ",
        "åĽ½"
      ],
      [
        "æ¥",
        "Ń"
      ],
      [
        "æº",
        "Ĳ"
      ],
      [
        "è",
        "º"
      ],
      [
        "ä¸",
        "ĩ"
      ],
      [
        "è¿",
        "ĳ"
      ],
      [
        "åħ±",
        "åĴĮ"
      ],
      [
        "e",
        "n"
      ],
      [
        "åħ",
        "ī"
      ],
      [
        "æ´",
        "¾"
      ],
      [
        "èģ",
        "¯"
      ],
      [
        "æĻ",
        "®"
      ],
      [
        "ä»¥",
        "åıĬ"
      ],
      [
        "ä¸",
        "¤"
      ],
      [
        "ä»",
        "Ĭ"
      ],
      [
        "æĽ",
        "¸"
      ],
      [
        "ä»",
        "İ"
      ],
      [
        "è¿",
        "Ĳ"
      ],
      [
        "åĮħ",
        "æĭ¬"
      ],
      [
        "åı",
        "ª"
      ],
      [
        "å",
        "³"
      ],
      [
        "æĶ",
        "¾"
      ],
      [
        "åħ",
        "Ī"
      ],
      [
        "æ³",
        "¢"
      ],
      [
        "åħ",
        "ļ"
      ],
      [
        "åį",
        "¡"
      ],
      [
        "æĢ",
        "Ŀ"
      ],
      [
        "èĤ",
        "²"
      ],
      [
        "o",
        "r"
      ],
      [
        "åĽ",
        "ŀ"
      ],
      [
        "çĻ",
        "½"
      ],
      [
        "çº",
        "¦"
      ],
      [
        "æł",
        "¹"
      ],
      [
        "ç",
        "¢"
      ],
      [
        "ç",
        "ĳ"
      ],
      [
        "ç´",
        "Ħ"
      ],
      [
        "19",
        "9"
      ],
      [
        "è",
        "Į"
      ],
      [
        "è®",
        "º"
      ],
      [
        "æĥ",
        "ħ"
      ],
      [
        "åī",
        "ĩ"
      ],
      [
        "a",
        "r"
      ],
      [
        "åİ",
        "Ĩ"
      ],
      [
        "é",
        "º"
      ],
      [
        "a",
        "l"
      ],
      [
        "ç»",
        "Ħ"
      ],
      [
        "åħ",
        "µ"
      ],
      [
        "èĢ",
        "ĥ"
      ],
      [
        "è®",
        "¡"
      ],
      [
        "åı",
        "Ī"
      ],
      [
        "éĥ¨",
        "åĪĨ"
      ],
      [
        "é¢",
        "Ĩ"
      ],
      [
        "æ",
        "ĩ"
      ],
      [
        "éĢ",
        "Ŀ"
      ],
      [
        "ç´",
        "Ģ"
      ],
      [
        "åŃ",
        "ĺ"
      ],
      [
        "è«",
        "ĸ"
      ],
      [
        "å¾",
        "Ī"
      ],
      [
        "åŀ",
        "ĭ"
      ],
      [
        "èº",
        "«"
      ],
      [
        "åħ¶",
        "ä»ĸ"
      ],
      [
        "å¸",
        "Į"
      ],
      [
        "é",
        "²"
      ],
      [
        "æ¬",
        "Ĭ"
      ],
      [
        "Ġ",
        "20"
      ],
      [
        "åħ",
        "©"
      ],
      [
        "èª",
        "į"
      ],
      [
        "Ġ",
        "("
      ],
      [
        "èĭ",
        "ı"
      ],
      [
        "çŁ",
        "¥"
      ],
      [
        "æŃ",
        "»"
      ],
      [
        "æĿ",
        "ĥ"
      ],
      [
        "a",
        "t"
      ],
      [
        "çŁ",
        "³"
      ],
      [
        "æĹ",
        "ł"
      ],
      [
        "é",
        "Ķ"
      ],
      [
        "åĩº",
        "çĶŁ"
      ],
      [
        "çº",
        "ª"
      ],
      [
        "ä»",
        "¬"
      ],
      [
        "å±",
        "Ģ"
      ],
      [
        "e",
        "s"
      ],
      [
        "åĤ",
        "³"
      ],
      [
        "ä¸",
        "Ķ"
      ],
      [
        "èŃ",
        "°"
      ],
      [
        "åħ¶",
        "ä¸Ń"
      ],
      [
        "1",
        "4"
      ],
      [
        "æŀ",
        "ľ"
      ],
      [
        "ç±",
        "»"
      ],
      [
        "åĵ",
        "Ī"
      ],
      [
        "çµ",
        "Ĳ"
      ],
      [
        "èĺ",
        "Ń"
      ],
      [
        "åĪ",
        "Ŀ"
      ],
      [
        "é",
        "Ń"
      ],
      [
        "å®",
        "£"
      ],
      [
        "ç»",
        "ĵ"
      ],
      [
        "å¯",
        "¦"
      ],
      [
        "æĬ",
        "Ģ"
      ],
      [
        "çĻ",
        "¾"
      ],
      [
        "åħ",
        "Ń"
      ],
      [
        "é",
        "¾"
      ],
      [
        "Ġ",
        "ãĢĬ"
      ],
      [
        "ä¼",
        "ł"
      ],
      [
        "åŁ",
        "Ł"
      ],
      [
        "éĢĿ",
        "ä¸ĸ"
      ],
      [
        "åİ",
        "¿"
      ],
      [
        "é»",
        "¨"
      ],
      [
        "è¯",
        "´"
      ],
      [
        "åı",
        "Ĥ"
      ],
      [
        "æ±",
        "ī"
      ],
      [
        "i",
        "c"
      ],
      [
        "å¢",
        "ŀ"
      ],
      [
        "æĽ",
        "²"
      ],
      [
        "1",
        "3"
      ],
      [
        "çĦ",
        "¡"
      ],
      [
        "å¼",
        "ķ"
      ],
      [
        "å±",
        "ħ"
      ],
      [
        "åİ",
        "»"
      ],
      [
        "æĪ",
        "ĳ"
      ],
      [
        "åĬ",
        "¡"
      ],
      [
        "èª",
        "ª"
      ],
      [
        "è®",
        "¤"
      ],
      [
        "è¶",
        "Ĭ"
      ],
      [
        "åħ",
        "°"
      ],
      [
        "éĻ",
        "¤"
      ],
      [
        "æµ",
        "İ"
      ],
      [
        ")",
        "ãĢģ"
      ],
      [
        "çĶ",
        "·"
      ],
      [
        "å¨",
        "ģ"
      ],
      [
        "å¹",
        "¿"
      ],
      [
        "ä¼",
        "¯"
      ],
      [
        "éģ",
        "Ķ"
      ],
      [
        "çº",
        "§"
      ],
      [
        "åħ",
        "·"
      ],
      [
        "è",
        "Ħ"
      ],
      [
        "ä¿",
        "Ħ"
      ],
      [
        "çİ",
        "ĩ"
      ],
      [
        "ç",
        "¡"
      ],
      [
        "å¤§",
        "åŃ¦"
      ],
      [
        "å¾",
        "ŀ"
      ],
      [
        "æĹ",
        "©"
      ],
      [
        "çĹ",
        "ħ"
      ],
      [
        "éł",
        "ĺ"
      ],
      [
        "h",
        "e"
      ],
      [
        "æĥ",
        "³"
      ],
      [
        "å®",
        "Į"
      ],
      [
        "æ¨",
        "Ĥ"
      ],
      [
        "ç",
        "Ĭ"
      ],
      [
[...]
